{
  "version": "1.0",
  "truncation": null,
  "padding": null,
  "added_tokens": [
    {
      "id": 0,
      "special": true,
      "content": "<|unknown|>",
      "single_word": false,
      "lstrip": false,
      "rstrip": false,
      "normalized": false
    }
  ],
  "normalizer": {
    "type": "NFKC"
  },
  "pre_tokenizer": {
    "type": "ByteLevel",
    "add_prefix_space": true,
    "trim_offsets": true
  },
  "post_processor": {
    "type": "ByteLevel",
    "add_prefix_space": true,
    "trim_offsets": true
  },
  "decoder": {
    "type": "ByteLevel",
    "add_prefix_space": true,
    "trim_offsets": true
  },
  "model": {
    "type": "BPE",
    "dropout": null,
    "unk_token": "<|unknown|>",
    "continuing_subword_prefix": null,
    "end_of_word_suffix": null,
    "fuse_unk": false,
    "vocab": {
      "<|unknown|>": 0,
      "!": 1,
      "'": 2,
      ",": 3,
      "-": 4,
      ".": 5,
      ":": 6,
      ";": 7,
      "?": 8,
      "A": 9,
      "B": 10,
      "C": 11,
      "D": 12,
      "E": 13,
      "F": 14,
      "G": 15,
      "H": 16,
      "I": 17,
      "J": 18,
      "K": 19,
      "L": 20,
      "M": 21,
      "N": 22,
      "O": 23,
      "P": 24,
      "Q": 25,
      "R": 26,
      "S": 27,
      "T": 28,
      "U": 29,
      "V": 30,
      "W": 31,
      "X": 32,
      "Y": 33,
      "Z": 34,
      "a": 35,
      "b": 36,
      "c": 37,
      "d": 38,
      "e": 39,
      "f": 40,
      "g": 41,
      "h": 42,
      "i": 43,
      "j": 44,
      "k": 45,
      "l": 46,
      "m": 47,
      "n": 48,
      "o": 49,
      "p": 50,
      "q": 51,
      "r": 52,
      "s": 53,
      "t": 54,
      "u": 55,
      "v": 56,
      "w": 57,
      "x": 58,
      "y": 59,
      "z": 60,
      "Ċ": 61,
      "Ġ": 62,
      "Ġt": 63,
      "he": 64,
      "Ġa": 65,
      "ou": 66,
      "Ġs": 67,
      "Ġm": 68,
      "Ġw": 69,
      "in": 70,
      "re": 71,
      "ha": 72,
      "Ġthe": 73,
      "nd": 74,
      "Ġb": 75,
      "is": 76,
      "or": 77,
      "ĠĊ": 78,
      "Ġf": 79,
      "ĠI": 80,
      "er": 81,
      "ll": 82,
      "it": 83,
      "on": 84,
      "Ġd": 85,
      "Ġc": 86,
      "Ġn": 87,
      "Ġl": 88,
      "Ġy": 89,
      "es": 90,
      "en": 91,
      "Ġth": 92,
      "ar": 93,
      "Ġh": 94,
      "Ġo": 95,
      "Ġto": 96,
      "Ġyou": 97,
      "Ġp": 98,
      "ĠT": 99,
      "hat": 100,
      "ĠA": 101,
      "Ġhe": 102,
      "ve": 103,
      "ot": 104,
      "Ġand": 105,
      "st": 106,
      "ow": 107,
      "ing": 108,
      "Ġof": 109,
      "an": 110,
      "om": 111,
      "Ġg": 112,
      "at": 113,
      "Ġbe": 114,
      "ĠW": 115,
      "se": 116,
      "Ġmy": 117,
      "Ġin": 118,
      "Ġha": 119,
      "ce": 120,
      "le": 121,
      "ay": 122,
      "ld": 123,
      "ir": 124,
      "et": 125,
      "ed": 126,
      "ut": 127,
      "ĠB": 128,
      "Ġme": 129,
      "im": 130,
      "ĠS": 131,
      "ith": 132,
      "Ġnot": 133,
      "'s": 134,
      "ch": 135,
      "ĠH": 136,
      "Ġthat": 137,
      "Ġis": 138,
      "ĠM": 139,
      "gh": 140,
      "ĠAnd": 141,
      "Ġfor": 142,
      "Ġu": 143,
      "ke": 144,
      "ĠC": 145,
      "Ġwe": 146,
      "our": 147,
      "oo": 148,
      "ill": 149,
      "Ġe": 150,
      "Ġwith": 151,
      "her": 152,
      "Ġit": 153,
      "ent": 154,
      "Ġyour": 155,
      "ad": 156,
      "ri": 157,
      "ĠO": 158,
      "Ġthou": 159,
      "Ġst": 160,
      "Ġk": 161,
      "ĠL": 162,
      "'d": 163,
      "ome": 164,
      "Ġhis": 165,
      "ĠF": 166,
      "ĠG": 167,
      "ght": 168,
      "Ġre": 169,
      "ord": 170,
      "id": 171,
      "EN": 172,
      "ra": 173,
      "ĠThe": 174,
      "Ġhave": 175,
      "Ġhim": 176,
      "ly": 177,
      "Ġli": 178,
      "as": 179,
      "IN": 180,
      "ĠP": 181,
      "Ġthis": 182,
      "ur": 183,
      "IO": 184,
      "al": 185,
      "Ġso": 186,
      "Ġas": 187,
      "Ġde": 188,
      "Ġon": 189,
      "ĠR": 190,
      "ore": 191,
      "ro": 192,
      "ĠN": 193,
      "hi": 194,
      "ould": 195,
      "ood": 196,
      "AR": 197,
      "ck": 198,
      "ain": 199,
      "ver": 200,
      "ĠY": 201,
      "est": 202,
      "Ġsha": 203,
      "Ġthy": 204,
      "ess": 205,
      "Ġwill": 206,
      "Ġdo": 207,
      "ea": 208,
      "Ġno": 209,
      "am": 210,
      "ĠE": 211,
      "Ġbut": 212,
      "ĠD": 213,
      "us": 214,
      "Ġse": 215,
      "US": 216,
      "if": 217,
      "Ġ'": 218,
      "ge": 219,
      "Ġall": 220,
      "and": 221,
      "ĠTh": 222,
      "Ġsu": 223,
      "ake": 224,
      "ĠTo": 225,
      "Ġher": 226,
      "ru": 227,
      "ion": 228,
      "Ġan": 229,
      "Ġlo": 230,
      "ter": 231,
      "ard": 232,
      "han": 233,
      "Ġsp": 234,
      "ĠK": 235,
      "ell": 236,
      "ear": 237,
      "Ġthee": 238,
      "Ġshall": 239,
      "Ġfa": 240,
      "Ġour": 241,
      "Ġby": 242,
      "th": 243,
      "UC": 244,
      "Ġare": 245,
      "il": 246,
      "Ġne": 247,
      "Ġkn": 248,
      "rom": 249,
      "ho": 250,
      "Ġv": 251,
      "ING": 252,
      "ĠThat": 253,
      "ER": 254,
      "OR": 255,
      "ast": 256,
      "ct": 257,
      "ous": 258,
      "Ġwhat": 259,
      "Ġsh": 260,
      "ight": 261,
      "ul": 262,
      "ET": 263,
      "ant": 264,
      "Ġup": 265,
      "Ġgood": 266,
      "sel": 267,
      "qu": 268,
      "ĠBut": 269,
      "art": 270,
      "row": 271,
      "ine": 272,
      "Ġcom": 273,
      "ath": 274,
      "Ġmu": 275,
      "Ġlord": 276,
      "hich": 277,
      "nt": 278,
      "Ġpr": 279,
      "Ġman": 280,
      "'ll": 281,
      "Ġat": 282,
      "one": 283,
      "Ġwhe": 284,
      "Ġcon": 285,
      "ĠWhat": 286,
      "Ġam": 287,
      "end": 288,
      "ic": 289,
      "ĠV": 290,
      "ES": 291,
      "ble": 292,
      "ry": 293,
      "Ġfrom": 294,
      "ong": 295,
      "ie": 296,
      "Ġshe": 297,
      "Ġbl": 298,
      "ive": 299,
      "ven": 300,
      "Ġgo": 301,
      "Ġmore": 302,
      "ĠFor": 303,
      "Ġthem": 304,
      "em": 305,
      "Ġwas": 306,
      "IC": 307,
      "out": 308,
      "au": 309,
      "Ġsir": 310,
      "other": 311,
      "are": 312,
      "oth": 313,
      "ol": 314,
      "Ġif": 315,
      "Ġnow": 316,
      "ĠHe": 317,
      "Ġhat": 318,
      "Ġthere": 319,
      "Ġwould": 320,
      "AN": 321,
      "ost": 322,
      "Ġknow": 323,
      "Ġcan": 324,
      "LO": 325,
      "ind": 326,
      "ers": 327,
      "IUS": 328,
      "ep": 329,
      "self": 330,
      "Ġsay": 331,
      "ARD": 332,
      "ather": 333,
      "ond": 334,
      "res": 335,
      "ate": 336,
      "fe": 337,
      "Ġsw": 338,
      "Ġhere": 339,
      "Ġlove": 340,
      "Ġtheir": 341,
      "Ġor": 342,
      "Ġthan": 343,
      "ĠMy": 344,
      "Ġbr": 345,
      "pp": 346,
      "--": 347,
      "Ġthey": 348,
      "Ġus": 349,
      "Ġking": 350,
      "Ġthen": 351,
      "ĠKING": 352,
      "all": 353,
      "Ġar": 354,
      "od": 355,
      "Ġlet": 356,
      "Ġun": 357,
      "ig": 358,
      "Ġwor": 359,
      "ure": 360,
      "ink": 361,
      "Ġmay": 362,
      "hy": 363,
      "Ġcome": 364,
      "ame": 365,
      "fore": 366,
      "ort": 367,
      "ĠAs": 368,
      "Ġqu": 369,
      "ook": 370,
      "Ġwell": 371,
      "el": 372,
      "ish": 373,
      "LI": 374,
      "ĠWhe": 375,
      "Ġj": 376,
      "KE": 377,
      "ves": 378,
      "Ġone": 379,
      "Ġhath": 380,
      "irst": 381,
      "Ġmake": 382,
      "ĠYou": 383,
      "Ġgra": 384,
      "reat": 385,
      "ak": 386,
      "ng": 387,
      "Ġmust": 388,
      "gain": 389,
      "ound": 390,
      "Ġwere": 391,
      "Ġho": 392,
      "Ġsee": 393,
      "Ġshould": 394,
      "Ġlike": 395,
      "ci": 396,
      "Ġpro": 397,
      "ue": 398,
      "eak": 399,
      "TIO": 400,
      "Ġsa": 401,
      "ity": 402,
      "Ġmad": 403,
      "Ġpl": 404,
      "Ġfather": 405,
      "Ġhad": 406,
      "um": 407,
      "Ġdid": 408,
      "Ġupon": 409,
      "OM": 410,
      "ime": 411,
      "pe": 412,
      "Ġtoo": 413,
      "ice": 414,
      "ON": 415,
      "ĠJ": 416,
      "Ġdis": 417,
      "ence": 418,
      "Ġdeath": 419,
      "ward": 420,
      "Ġwhich": 421,
      "Ġen": 422,
      "ĠIf": 423,
      "ose": 424,
      "own": 425,
      "Ġspeak": 426,
      "Ġpo": 427,
      "Ġwhen": 428,
      "ful": 429,
      "Ġout": 430,
      "Ġfri": 431,
      "Ġhow": 432,
      "entle": 433,
      "io": 434,
      "pt": 435,
      "un": 436,
      "Ġagain": 437,
      "ICH": 438,
      "ĠRICH": 439,
      "Ġtru": 440,
      "OL": 441,
      "UKE": 442,
      "de": 443,
      "ĠDUKE": 444,
      "man": 445,
      "Ġheart": 446,
      "Ġyet": 447,
      "ick": 448,
      "Ġhand": 449,
      "very": 450,
      "ĠWith": 451,
      "ĠRICHARD": 452,
      "Ġwho": 453,
      "ENTIO": 454,
      "ĠThou": 455,
      "Ġsome": 456,
      "ĠWe": 457,
      "ign": 458,
      "ance": 459,
      "ĠWhich": 460,
      "Ġmar": 461,
      "Ġhon": 462,
      "nce": 463,
      "ies": 464,
      "Ġr": 465,
      "Ġson": 466,
      "ĠIn": 467,
      "ire": 468,
      "Ġmine": 469,
      "Ġoff": 470,
      "ist": 471,
      "Ġal": 472,
      "ince": 473,
      "INC": 474,
      "har": 475,
      "orn": 476,
      "ack": 477,
      "ĠWhy": 478,
      "'t": 479,
      "wn": 480,
      "ĠOf": 481,
      "ĠGod": 482,
      "EL": 483,
      "Ġtime": 484,
      "Ġhea": 485,
      "Ġsuch": 486,
      "oy": 487,
      "ĠFirst": 488,
      "Ġhear": 489,
      "ĠSo": 490,
      "ness": 491,
      "Ġbrother": 492,
      "ec": 493,
      "Ġthese": 494,
      "ĠCl": 495,
      "Ġblood": 496,
      "Ġab": 497,
      "ither": 498,
      "Ġex": 499,
      "Ġgive": 500,
      "UE": 501,
      "Ġfo": 502,
      "ĠIs": 503,
      "Ġday": 504,
      "ĠNo": 505,
      "Ġear": 506,
      "Ġro": 507,
      "Ġlook": 508,
      "Ġthink": 509,
      "Ġtell": 510,
      "ĠII": 511,
      "ĠHow": 512,
      "Ġlife": 513,
      "TER": 514,
      "ise": 515,
      "Ġey": 516,
      "AB": 517,
      "eet": 518,
      "Ġwhere": 519,
      "Ġtake": 520,
      "Ġword": 521,
      "UCH": 522,
      "oul": 523,
      "Ġfriend": 524,
      "ther": 525,
      "ĠQ": 526,
      "ĠThis": 527,
      "ag": 528,
      "age": 529,
      "Ġdes": 530,
      "ĠGLO": 531,
      "UCES": 532,
      "ĠGLOUCES": 533,
      "ĠGLOUCESTER": 534,
      "ef": 535,
      "een": 536,
      "erv": 537,
      "ĠCome": 538,
      "ust": 539,
      "Ġgentle": 540,
      "ady": 541,
      "rown": 542,
      "ings": 543,
      "ĠLord": 544,
      "ĠU": 545,
      "Ġri": 546,
      "urse": 547,
      "ave": 548,
      "ase": 549,
      "ĠRome": 550,
      "tis": 551,
      "Ġlea": 552,
      "ĠVINC": 553,
      "Ġart": 554,
      "UEEN": 555,
      "ĠQUEEN": 556,
      "ĠVINCENTIO": 557,
      "way": 558,
      "Ġwar": 559,
      "ĠOF": 560,
      "Ġmost": 561,
      "Ġhonour": 562,
      "Ġfl": 563,
      "ĠMar": 564,
      "Ġmuch": 565,
      "UM": 566,
      "LAN": 567,
      "Ġsl": 568,
      "ĠWhere": 569,
      "AM": 570,
      "urn": 571,
      "Ġmade": 572,
      "Ġtw": 573,
      "ment": 574,
      "Ġfear": 575,
      "Ġhast": 576,
      "ĠNow": 577,
      "ĠWho": 578,
      "Ġbet": 579,
      "aught": 580,
      "Ġcou": 581,
      "Ġgreat": 582,
      "ĠBe": 583,
      "ber": 584,
      "not": 585,
      "Ġbre": 586,
      "ved": 587,
      "Ġnever": 588,
      "Ġfair": 589,
      "Ġnew": 590,
      "cc": 591,
      "ee": 592,
      "ss": 593,
      "Ġaf": 594,
      "ower": 595,
      "RY": 596,
      "ap": 597,
      "igh": 598,
      "Ġmen": 599,
      "ĠAN": 600,
      "tle": 601,
      "orrow": 602,
      "ĠYour": 603,
      "aster": 604,
      "uke": 605,
      "ĠIt": 606,
      "iz": 607,
      "ough": 608,
      "ĠYOR": 609,
      "ĠYORK": 610,
      "Ġcall": 611,
      "Ġpart": 612,
      "Ġany": 613,
      "Ġra": 614,
      "ation": 615,
      "ĠOr": 616,
      "INIUS": 617,
      "ST": 618,
      "Ġad": 619,
      "ree": 620,
      "ide": 621,
      "Ġcomm": 622,
      "Ġcannot": 623,
      "Ġpre": 624,
      "Ġstand": 625,
      "Ġtrue": 626,
      "Ġheaven": 627,
      "Ġname": 628,
      "ĠPET": 629,
      "AU": 630,
      "Ġbeen": 631,
      "Ġpray": 632,
      "hing": 633,
      "old": 634,
      "Ġcl": 635,
      "Ġsweet": 636,
      "DW": 637,
      "Ġper": 638,
      "Ġple": 639,
      "ĠEDW": 640,
      "ĠEDWARD": 641,
      "ple": 642,
      "ĠGR": 643,
      ",--": 644,
      "Ġdoth": 645,
      "Ġnoble": 646,
      "Ġwr": 647,
      "Ġown": 648,
      "ĠHEN": 649,
      "ears": 650,
      "ĠHENRY": 651,
      "ĠLUC": 652,
      "ouse": 653,
      "Ġdone": 654,
      "ĠThere": 655,
      "ull": 656,
      "Ġtr": 657,
      "Ġway": 658,
      "Ġother": 659,
      "Ġhead": 660,
      "ife": 661,
      "RO": 662,
      "aw": 663,
      "Ġmean": 664,
      "Ġpres": 665,
      "UT": 666,
      "Ġbear": 667,
      "ĠEd": 668,
      "Ġsc": 669,
      "red": 670,
      "Ġnor": 671,
      "AP": 672,
      "EO": 673,
      "Ġvery": 674,
      "Ġsoul": 675,
      "ĠAy": 676,
      "ĠROM": 677,
      "ĠWhen": 678,
      "ĠEdward": 679,
      "ĠROMEO": 680,
      "ving": 681,
      "Ġboth": 682,
      "Ġnight": 683,
      "ĠAn": 684,
      "Ġbefore": 685,
      "ĠMEN": 686,
      "ENIUS": 687,
      "ass": 688,
      "aint": 689,
      "Ġworld": 690,
      "ĠMENENIUS": 691,
      "ace": 692,
      "ger": 693,
      "ĠBy": 694,
      "ause": 695,
      "Ġqueen": 696,
      "li": 697,
      "ĠLet": 698,
      "TH": 699,
      "Ġmo": 700,
      "Ġchi": 701,
      "aughter": 702,
      "RUCH": 703,
      "ĠThen": 704,
      "ĠHere": 705,
      "ĠPETRUCH": 706,
      "ĠPETRUCHIO": 707,
      "able": 708,
      "Ġdown": 709,
      "Ġdead": 710,
      "Ġcont": 711,
      "TES": 712,
      "Ġapp": 713,
      "Ġwh": 714,
      "ite": 715,
      "Ġke": 716,
      "Ġbeing": 717,
      "Ġrem": 718,
      "per": 719,
      "Ġmyself": 720,
      "ab": 721,
      "les": 722,
      "ĠThan": 723,
      "ĠMAR": 724,
      "Ġbeg": 725,
      "Ġarm": 726,
      "Ġthus": 727,
      "ĠCOR": 728,
      "IOLAN": 729,
      "ilt": 730,
      "Ġleave": 731,
      "ĠCORIOLAN": 732,
      "ĠCORIOLANUS": 733,
      "ĠSec": 734,
      "Ġgrace": 735,
      "ĠSecond": 736,
      "Ġunt": 737,
      "ction": 738,
      "ĠNor": 739,
      "ress": 740,
      "Ġeyes": 741,
      "Ġim": 742,
      "Ġmother": 743,
      "ĠLE": 744,
      "less": 745,
      "Ġma": 746,
      "Ġold": 747,
      "land": 748,
      "ran": 749,
      "Ġrep": 750,
      "INA": 751,
      "itiz": 752,
      "Ġever": 753,
      "itizen": 754,
      "lo": 755,
      "ps": 756,
      "sw": 757,
      "Ġwife": 758,
      "Ġlong": 759,
      "Ġint": 760,
      "ĠShe": 761,
      "Ġlive": 762,
      "Ġchild": 763,
      "Ġwom": 764,
      "Ġpoor": 765,
      "Ġfriends": 766,
      "Ġaway": 767,
      "Ġcons": 768,
      "ĠIII": 769,
      "ĠGo": 770,
      "Ġmight": 771,
      "ford": 772,
      "nder": 773,
      "Ġdie": 774,
      "ĠSir": 775,
      "Ġstay": 776,
      "eace": 777,
      "Ġcomes": 778,
      "ks": 779,
      "wick": 780,
      "oud": 781,
      "atch": 782,
      "ĠWar": 783,
      "led": 784,
      "Ġmany": 785,
      "Ġru": 786,
      "Ġhouse": 787,
      "Ġrest": 788,
      "Ġcrown": 789,
      "Ġpe": 790,
      "ĠWarwick": 791,
      "ff": 792,
      "Ġcour": 793,
      "Ġle": 794,
      "ows": 795,
      "Tis": 796,
      "come": 797,
      "Ġent": 798,
      "ison": 799,
      "Ġhar": 800,
      "ĠHis": 801,
      "Ġthought": 802,
      "LA": 803,
      "SAB": 804,
      "ĠISAB": 805,
      "Ġlie": 806,
      "ELLA": 807,
      "ĠISABELLA": 808,
      "ian": 809,
      "uck": 810,
      "iss": 811,
      "erc": 812,
      "RAN": 813,
      "Ġset": 814,
      "Ġdaughter": 815,
      "che": 816,
      "ĠWell": 817,
      "Ġnothing": 818,
      "ĠRomeo": 819,
      "ULI": 820,
      "Ġtong": 821,
      "ors": 822,
      "atter": 823,
      "ONTES": 824,
      "ĠJULI": 825,
      "Ġbetter": 826,
      "ĠLEONTES": 827,
      "ĠJULIET": 828,
      "ittle": 829,
      "Ġgone": 830,
      "ĠSt": 831,
      "ĠNay": 832,
      "Ġprince": 833,
      "rant": 834,
      "AD": 835,
      "ought": 836,
      "Ġwit": 837,
      "int": 838,
      "ĠLAD": 839,
      "ĠLADY": 840,
      "AL": 841,
      "CE": 842,
      "well": 843,
      "Ġtri": 844,
      "ENCE": 845,
      "ied": 846,
      "me": 847,
      "ĠPro": 848,
      "Ġnews": 849,
      "Ġkeep": 850,
      "os": 851,
      "Ġsle": 852,
      "Ġbest": 853,
      "Ġres": 854,
      "Ġagainst": 855,
      "ces": 856,
      "for": 857,
      "ious": 858,
      "hall": 859,
      "Ġthose": 860,
      "ĠServ": 861,
      "ier": 862,
      "Ġacc": 863,
      "Ġlittle": 864,
      "Ġhence": 865,
      "Ġgri": 866,
      "ĠSIC": 867,
      "ĠCitizen": 868,
      "ool": 869,
      "Ġcomp": 870,
      "hard": 871,
      "ĠSICINIUS": 872,
      "Ġthing": 873,
      "Ġhour": 874,
      "ĠNot": 875,
      "Ġlords": 876,
      "ty": 877,
      "Ġput": 878,
      "ardon": 879,
      "Ġface": 880,
      "akes": 881,
      "une": 882,
      "lse": 883,
      "llow": 884,
      "sed": 885,
      "Ġend": 886,
      "ĠOn": 887,
      "Ġkind": 888,
      "EY": 889,
      "Ġyoung": 890,
      "Ġstill": 891,
      "ult": 892,
      "Ġtwo": 893,
      "ret": 894,
      "ork": 895,
      "ont": 896,
      "Ġpri": 897,
      "Ġhimself": 898,
      "ield": 899,
      "ud": 900,
      "Ġpur": 901,
      "Ġpower": 902,
      "alk": 903,
      "ĠThy": 904,
      "ĠLUCIO": 905,
      "ale": 906,
      "ins": 907,
      "ĠIV": 908,
      "ert": 909,
      "Ġcha": 910,
      "ĠRic": 911,
      "ĠRichard": 912,
      "ew": 913,
      "ĠCL": 914,
      "Ġsub": 915,
      "Ġtherefore": 916,
      "Ġcount": 917,
      "TI": 918,
      "cl": 919,
      "ft": 920,
      "iness": 921,
      "Ġfirst": 922,
      "Ġpeace": 923,
      "Ġgu": 924,
      "Ġelse": 925,
      "ried": 926,
      "Ġdear": 927,
      "cious": 928,
      "Ġunto": 929,
      "Ġtill": 930,
      "Ġsm": 931,
      "Ġduke": 932,
      "Ġcould": 933,
      "ĠWill": 934,
      "ĠBR": 935,
      "ĠHave": 936,
      "ason": 937,
      "hile": 938,
      "ail": 939,
      "ect": 940,
      "ile": 941,
      "Ġtra": 942,
      "Ġback": 943,
      "Ġco": 944,
      "Ġhus": 945,
      "uty": 946,
      "Ġthough": 947,
      "Ġwords": 948,
      "ZAB": 949,
      "Ġtre": 950,
      "Ġbid": 951,
      "Ġfell": 952,
      "Ġfind": 953,
      "Ġdre": 954,
      "ĠYork": 955,
      "ĠELI": 956,
      "Ġneed": 957,
      "ETH": 958,
      "Ġearth": 959,
      "Ġtongue": 960,
      "ZABETH": 961,
      "ĠELIZABETH": 962,
      "band": 963,
      "ius": 964,
      "ople": 965,
      "yal": 966,
      "Ġlady": 967,
      "Ġthine": 968,
      "IAN": 969,
      "men": 970,
      "Ġbra": 971,
      "orse": 972,
      "Ġhome": 973,
      "Ġhel": 974,
      "Ġforth": 975,
      "Ġseem": 976,
      "Ġhope": 977,
      "eech": 978,
      "ray": 979,
      "enry": 980,
      "ark": 981,
      "Ġhigh": 982,
      "eth": 983,
      "ĠHenry": 984,
      "ĠYet": 985,
      "Ġhusband": 986,
      "vere": 987,
      "ĠGood": 988,
      "Ġright": 989,
      "get": 990,
      "Ġchan": 991,
      "WIC": 992,
      "tw": 993,
      "Ġmind": 994,
      "Ġban": 995,
      "ĠWAR": 996,
      "uth": 997,
      "Ġpeople": 998,
      "WICK": 999,
      "ĠWARWICK": 1000,
      "AST": 1001,
      "ach": 1002,
      "ds": 1003,
      "ix": 1004,
      "rer": 1005,
      "ister": 1006,
      "Ġche": 1007,
      "Ġchar": 1008,
      "ĠAll": 1009,
      "ĠShall": 1010,
      "hip": 1011,
      "ĠDo": 1012,
      "Ġshow": 1013,
      "Ġconf": 1014,
      "ged": 1015,
      "Ġbri": 1016,
      "ĠVI": 1017,
      "Ġhands": 1018,
      "HAM": 1019,
      "fort": 1020,
      "Ġmaster": 1021,
      "Ġwhy": 1022,
      "Ġcause": 1023,
      "ĠNurse": 1024,
      "Ġjoy": 1025,
      "Ġimp": 1026,
      "LET": 1027,
      "ULET": 1028,
      "Ġserv": 1029,
      "Ġmist": 1030,
      "Ġnone": 1031,
      "Ġlaw": 1032,
      "Ġgl": 1033,
      "ĠCAP": 1034,
      "ĠThey": 1035,
      "Ġonce": 1036,
      "Ġsaid": 1037,
      "ĠCAPULET": 1038,
      "Ġfort": 1039,
      "Ġevery": 1040,
      "GE": 1041,
      "IL": 1042,
      "MIO": 1043,
      "ren": 1044,
      "Ġbod": 1045,
      "ousin": 1046,
      "Ġbring": 1047,
      "RI": 1048,
      "bt": 1049,
      "Ġdou": 1050,
      "KING": 1051,
      "eed": 1052,
      "Ġpass": 1053,
      "ates": 1054,
      "ĠBUC": 1055,
      "Ġplease": 1056,
      "UTUS": 1057,
      "ĠBRUTUS": 1058,
      "KINGHAM": 1059,
      "ĠBUCKINGHAM": 1060,
      "BRO": 1061,
      "iet": 1062,
      "lt": 1063,
      "ĠTRAN": 1064,
      "ird": 1065,
      "ĠBOL": 1066,
      "ĠFrom": 1067,
      "Ġlight": 1068,
      "INGBRO": 1069,
      "ESS": 1070,
      "ĠTRANIO": 1071,
      "ĠBOLINGBRO": 1072,
      "ĠBOLINGBROKE": 1073,
      "eel": 1074,
      "vost": 1075,
      "Ġtears": 1076,
      "Ġwo": 1077,
      "Ġbes": 1078,
      "Ġnat": 1079,
      "Ġthr": 1080,
      "Ġwhose": 1081,
      "Ġroyal": 1082,
      "Ġpresent": 1083,
      "swer": 1084,
      "cle": 1085,
      "mb": 1086,
      "Ġsince": 1087,
      "Ġboy": 1088,
      "its": 1089,
      "Ġcame": 1090,
      "ary": 1091,
      "ĠOur": 1092,
      "Ġjust": 1093,
      "lf": 1094,
      "ock": 1095,
      "vy": 1096,
      "ory": 1097,
      "Ġfull": 1098,
      "Ġpardon": 1099,
      "Ġheard": 1100,
      "Ġunder": 1101,
      "Ġdev": 1102,
      "roke": 1103,
      "Ġafter": 1104,
      "Ġwrong": 1105,
      "GAR": 1106,
      "NE": 1107,
      "pose": 1108,
      "Ġland": 1109,
      "Ġhapp": 1110,
      "Ġplace": 1111,
      "ĠMARGAR": 1112,
      "ĠMARGARET": 1113,
      "ATH": 1114,
      "Ġmis": 1115,
      "Ġlast": 1116,
      "ens": 1117,
      "Ġere": 1118,
      "Ġstate": 1119,
      "ĠKing": 1120,
      "AMIL": 1121,
      "sand": 1122,
      "Ġsorrow": 1123,
      "Ġcare": 1124,
      "Ġmeet": 1125,
      "Ġkill": 1126,
      "Ġhold": 1127,
      "cent": 1128,
      "ition": 1129,
      "Ġthousand": 1130,
      "esty": 1131,
      "ORD": 1132,
      "Ġeye": 1133,
      "ĠANGE": 1134,
      "ĠGRE": 1135,
      "Ġwhom": 1136,
      "Ġhelp": 1137,
      "ĠANGELO": 1138,
      "Ġfal": 1139,
      "Ġless": 1140,
      "ARINA": 1141,
      "ĠEng": 1142,
      "Ġanswer": 1143,
      "arence": 1144,
      "Ġfollow": 1145,
      "SC": 1146,
      "Ġbus": 1147,
      "Ġfar": 1148,
      "Ġfool": 1149,
      "Ġch": 1150,
      "Ġhither": 1151,
      "Ġpat": 1152,
      "ceive": 1153,
      "irt": 1154,
      "ĠSh": 1155,
      "Ġweep": 1156,
      "Ġshame": 1157,
      "Ġsun": 1158,
      "ĠKATH": 1159,
      "selves": 1160,
      "cius": 1161,
      "Ġenem": 1162,
      "ĠClarence": 1163,
      "Ġabout": 1164,
      "ĠKATHARINA": 1165,
      "iol": 1166,
      "urde": 1167,
      "Ġfall": 1168,
      "Ġgentleman": 1169,
      "ĠMarcius": 1170,
      "Ġmaid": 1171,
      "day": 1172,
      "Ġob": 1173,
      "asure": 1174,
      "Ġinto": 1175,
      "Ġmakes": 1176,
      "Ġcousin": 1177,
      "ĠESC": 1178,
      "Ġhate": 1179,
      "Ġgracious": 1180,
      "ĠUn": 1181,
      "ĠUp": 1182,
      "Ġcoun": 1183,
      "Ġcourt": 1184,
      "ALUS": 1185,
      "Ġgrief": 1186,
      "ĠESCALUS": 1187,
      "air": 1188,
      "ject": 1189,
      "ĠAl": 1190,
      "imes": 1191,
      "Ġstri": 1192,
      "Ġwoman": 1193,
      "iv": 1194,
      "ove": 1195,
      "Ġturn": 1196,
      "ĠHath": 1197,
      "Ġstre": 1198,
      "Ġcomfort": 1199,
      "Ġworth": 1200,
      "ild": 1201,
      "ling": 1202,
      "Ġtalk": 1203,
      "Ġwilt": 1204,
      "ons": 1205,
      "Ġhum": 1206,
      "Ġbed": 1207,
      "alt": 1208,
      "Ġdost": 1209,
      "ĠDUCH": 1210,
      "ĠDuke": 1211,
      "ices": 1212,
      "deed": 1213,
      "Ġsleep": 1214,
      "urderer": 1215,
      "ĠDUCHESS": 1216,
      "pher": 1217,
      "ount": 1218,
      "itor": 1219,
      "Ġover": 1220,
      "Ġbel": 1221,
      "ERC": 1222,
      "ĠAnge": 1223,
      "Ġbody": 1224,
      "morrow": 1225,
      "Ġi": 1226,
      "Ġsound": 1227,
      "Ġbu": 1228,
      "Ġdra": 1229,
      "Ġinst": 1230,
      "ute": 1231,
      "ĠHer": 1232,
      "Ġfault": 1233,
      "Ġatt": 1234,
      "Ġthank": 1235,
      "ĠAngelo": 1236,
      "IA": 1237,
      "ience": 1238,
      "ised": 1239,
      "Ġindeed": 1240,
      "ĠCAMIL": 1241,
      "Ġanother": 1242,
      "Ġprove": 1243,
      "Ġplay": 1244,
      "Ġadv": 1245,
      "Ġfalse": 1246,
      "ĠCAMILLO": 1247,
      "ily": 1248,
      "Ġser": 1249,
      "omet": 1250,
      "ĠWould": 1251,
      "Ġhas": 1252,
      "Ġuse": 1253,
      "Ġwel": 1254,
      "Ġret": 1255,
      "Ġdeed": 1256,
      "ĠEven": 1257,
      "Ġvo": 1258,
      "ieve": 1259,
      "Ġsword": 1260,
      "ĠProvost": 1261,
      "Ġfellow": 1262,
      "TEN": 1263,
      "Ġmatter": 1264,
      "Ġbo": 1265,
      "Ġfight": 1266,
      "Ġpers": 1267,
      "ans": 1268,
      "ĠHOR": 1269,
      "illain": 1270,
      "Ġeven": 1271,
      "ade": 1272,
      "Ġfortune": 1273,
      "TENS": 1274,
      "ĠHORTENS": 1275,
      "Ġsent": 1276,
      "ĠFRI": 1277,
      "Ġsovere": 1278,
      "hold": 1279,
      "Ġprison": 1280,
      "Ġgrave": 1281,
      "Ġcountry": 1282,
      "ĠUpon": 1283,
      "ĠHORTENSIO": 1284,
      "ĠFRIAR": 1285,
      ",'": 1286,
      "eal": 1287,
      "Ġmerc": 1288,
      "Ġdan": 1289,
      "Ġcur": 1290,
      "Ġyears": 1291,
      "ĠAre": 1292,
      "ĠBAP": 1293,
      "ury": 1294,
      "Ġsend": 1295,
      "Ġvirt": 1296,
      "Ġrather": 1297,
      "STA": 1298,
      "TISTA": 1299,
      "Ġbanish": 1300,
      "Ġdoubt": 1301,
      "ĠBAPTISTA": 1302,
      "CUS": 1303,
      "YCUS": 1304,
      "mp": 1305,
      "ouch": 1306,
      "Ġwant": 1307,
      "Ġwish": 1308,
      "ĠTy": 1309,
      "ĠAUT": 1310,
      "Ġgr": 1311,
      "Ġhang": 1312,
      "ĠCOM": 1313,
      "Ġreven": 1314,
      "Ġass": 1315,
      "fect": 1316,
      "pect": 1317,
      "OLYCUS": 1318,
      "Ġtruth": 1319,
      "Ġbusiness": 1320,
      "ĠAUTOLYCUS": 1321,
      "ĠCOMINIUS": 1322,
      ".'": 1323,
      "dd": 1324,
      "ĠAt": 1325,
      "ĠMore": 1326,
      "Ġreason": 1327,
      "Ġlies": 1328,
      "Ġonly": 1329,
      "ARENCE": 1330,
      "Ġshalt": 1331,
      "ĠThird": 1332,
      "Ġdisc": 1333,
      "ĠCLARENCE": 1334,
      "ere": 1335,
      "ior": 1336,
      "ms": 1337,
      "pen": 1338,
      "rance": 1339,
      "Ġsea": 1340,
      "Ġcra": 1341,
      "Ġstra": 1342,
      "ENES": 1343,
      "Ġbreath": 1344,
      "Ġcommand": 1345,
      "Ġarms": 1346,
      "Ġdream": 1347,
      "pherd": 1348,
      "VOL": 1349,
      "der": 1350,
      "Ġlay": 1351,
      "ener": 1352,
      "Ġprom": 1353,
      "Ġgi": 1354,
      "ĠBEN": 1355,
      "Ġstran": 1356,
      "ĠGentle": 1357,
      "ĠNOR": 1358,
      "Ġsec": 1359,
      "ĠClown": 1360,
      "VOLIO": 1361,
      "ĠBENVOLIO": 1362,
      "PER": 1363,
      "SPER": 1364,
      "Ġsen": 1365,
      "Ġsomet": 1366,
      "Ġwind": 1367,
      "Ġpity": 1368,
      "ĠTake": 1369,
      "ĠPRO": 1370,
      "Ġproud": 1371,
      "Ġholy": 1372,
      "Ġenough": 1373,
      "UMIO": 1374,
      "ĠGRUMIO": 1375,
      "Ġcontent": 1376,
      "Ġremem": 1377,
      "SPERO": 1378,
      "ĠPROSPERO": 1379,
      "UTIO": 1380,
      "ia": 1381,
      "ken": 1382,
      "ten": 1383,
      "hed": 1384,
      "Ġdare": 1385,
      "Ġthree": 1386,
      "ator": 1387,
      "Ġbea": 1388,
      "ĠSu": 1389,
      "ĠMurderer": 1390,
      "ĠMERC": 1391,
      "Ġlives": 1392,
      "Ġsold": 1393,
      "ĠDid": 1394,
      "Ġspir": 1395,
      "ĠKate": 1396,
      "Ġfare": 1397,
      "Ġswear": 1398,
      "ĠMERCUTIO": 1399,
      "IS": 1400,
      "ike": 1401,
      "Ġtend": 1402,
      "Ġget": 1403,
      "eter": 1404,
      "Ġwithin": 1405,
      "Ġdep": 1406,
      "Ġvillain": 1407,
      "Ġgods": 1408,
      "ĠWere": 1409,
      "ĠLUCENTIO": 1410,
      "ĠServant": 1411,
      "Ġnature": 1412,
      "Ġwelcome": 1413,
      "Ġsister": 1414,
      "ham": 1415,
      "Ġfoul": 1416,
      "Ġfree": 1417,
      "Ġthings": 1418,
      "ars": 1419,
      "Ġgre": 1420,
      "Ġkiss": 1421,
      "ĠPOM": 1422,
      "ester": 1423,
      "Ġsaw": 1424,
      "Ġmadam": 1425,
      "LAND": 1426,
      "Ġmistress": 1427,
      "Ġhappy": 1428,
      "Ġsovereign": 1429,
      "ĠPOMP": 1430,
      "LINA": 1431,
      "apt": 1432,
      "ient": 1433,
      "unt": 1434,
      "hal": 1435,
      "Ġcity": 1436,
      "Ġyield": 1437,
      "any": 1438,
      "ĠWas": 1439,
      "ĠGive": 1440,
      "ĠPAU": 1441,
      "vers": 1442,
      "Ġbreak": 1443,
      "Ġmeans": 1444,
      "Ġsubject": 1445,
      "Ġbeseech": 1446,
      "ĠPAULINA": 1447,
      "Ġaw": 1448,
      "Ġmer": 1449,
      "Ġborn": 1450,
      "ery": 1451,
      "Ġden": 1452,
      "Ġhorse": 1453,
      "Ġoath": 1454,
      "ĠSay": 1455,
      "Ġyours": 1456,
      "ĠLook": 1457,
      "onder": 1458,
      "gainst": 1459,
      "ague": 1460,
      "eft": 1461,
      "gether": 1462,
      "ĠGREMIO": 1463,
      "ĠPOMPEY": 1464,
      "NIA": 1465,
      "OLI": 1466,
      "XENES": 1467,
      "balt": 1468,
      "Ġtem": 1469,
      "Ġwound": 1470,
      "Ġwhile": 1471,
      "Ġfire": 1472,
      "Ġdru": 1473,
      "anc": 1474,
      "ĠCom": 1475,
      "Ġyourself": 1476,
      "ĠPOLI": 1477,
      "usic": 1478,
      "Ġsupp": 1479,
      "Ġfaith": 1480,
      "ĠVOL": 1481,
      "Ġbloody": 1482,
      "Ġlooks": 1483,
      "UMNIA": 1484,
      "ches": 1485,
      "ĠEngland": 1486,
      "ĠPOLIXENES": 1487,
      "ĠVOLUMNIA": 1488,
      "ey": 1489,
      "ues": 1490,
      "Ġsit": 1491,
      "Ġwin": 1492,
      "Ġcar": 1493,
      "Ġcond": 1494,
      "enger": 1495,
      "ingman": 1496,
      "ĠHAST": 1497,
      "ĠFare": 1498,
      "Ġrequ": 1499,
      "Ġspo": 1500,
      "INGS": 1501,
      "Ġcommon": 1502,
      "Ġmaj": 1503,
      "ĠServingman": 1504,
      "Ġtraitor": 1505,
      "centio": 1506,
      "ĠHASTINGS": 1507,
      "RENCE": 1508,
      "by": 1509,
      "broke": 1510,
      "rong": 1511,
      "Ġmon": 1512,
      "Ġlam": 1513,
      "ĠHast": 1514,
      "ĠMay": 1515,
      "ĠCan": 1516,
      "ĠLAU": 1517,
      "Ġdef": 1518,
      "essenger": 1519,
      "Ġuncle": 1520,
      "Ġmark": 1521,
      "Ġchildren": 1522,
      "ertain": 1523,
      "ĠLAURENCE": 1524,
      "BY": 1525,
      "BER": 1526,
      "Ġsight": 1527,
      "Ġmet": 1528,
      "Ġlate": 1529,
      "Ġleft": 1530,
      "ĠAh": 1531,
      "Ġbeat": 1532,
      "Ġsoon": 1533,
      "Ġval": 1534,
      "ĠJul": 1535,
      "ĠTherefore": 1536,
      "form": 1537,
      "Ġdanger": 1538,
      "ĠTybalt": 1539,
      "Ġtender": 1540,
      "Ġmajesty": 1541,
      "FF": 1542,
      "use": 1543,
      "Ġsin": 1544,
      "Ġtold": 1545,
      "ĠSp": 1546,
      "Ġseen": 1547,
      "Ġsure": 1548,
      "LIFF": 1549,
      "Ġsave": 1550,
      "Ġfoot": 1551,
      "Ġdays": 1552,
      "Ġwarrant": 1553,
      "UMBER": 1554,
      "like": 1555,
      "THUMBER": 1556,
      "Ġwoe": 1557,
      "ĠNORTHUMBER": 1558,
      "ĠNORTHUMBERLAND": 1559,
      "ID": 1560,
      "TA": 1561,
      "ting": 1562,
      "Ġsad": 1563,
      "rem": 1564,
      "Ġgener": 1565,
      "ĠLu": 1566,
      "ides": 1567,
      "idow": 1568,
      "ĠPl": 1569,
      "Ġdoes": 1570,
      "Ġreport": 1571,
      "Ġreturn": 1572,
      "Ġmercy": 1573,
      "Ġfarewell": 1574,
      "dom": 1575,
      "ring": 1576,
      "up": 1577,
      "hes": 1578,
      "rel": 1579,
      "Ġtogether": 1580,
      "Ġwithout": 1581,
      "Ġdeep": 1582,
      "ters": 1583,
      "earn": 1584,
      "Ġgold": 1585,
      "unes": 1586,
      "ĠThough": 1587,
      "Ġmarry": 1588,
      "Ġheavy": 1589,
      "ĠANNE": 1590,
      "Ġpurpose": 1591,
      "Ġthrough": 1592,
      "RINC": 1593,
      "aim": 1594,
      "bl": 1595,
      "ca": 1596,
      "cher": 1597,
      "ict": 1598,
      "vent": 1599,
      "Ġill": 1600,
      "Ġcho": 1601,
      "Ġcold": 1602,
      "Ġnurse": 1603,
      "Ġgrow": 1604,
      "ĠHad": 1605,
      "ĠMont": 1606,
      "Ġrec": 1607,
      "ĠPRINC": 1608,
      "ifford": 1609,
      "Ġlost": 1610,
      "ERD": 1611,
      "ignior": 1612,
      "ĠClifford": 1613,
      "Ġears": 1614,
      "Ġdeser": 1615,
      "ments": 1616,
      "Ġperson": 1617,
      "Ġstrange": 1618,
      "ĠJuliet": 1619,
      "ĠPRINCE": 1620,
      "az": 1621,
      "mer": 1622,
      "Ġtimes": 1623,
      "Ġwat": 1624,
      "oriol": 1625,
      "ĠTell": 1626,
      "ingbroke": 1627,
      "ceed": 1628,
      "ĠBol": 1629,
      "ĠMI": 1630,
      "ĠCam": 1631,
      "ours": 1632,
      "enty": 1633,
      "Ġask": 1634,
      "ĠRi": 1635,
      "ross": 1636,
      "Ġthyself": 1637,
      "ush": 1638,
      "Ġsuff": 1639,
      "Ġpluck": 1640,
      "Ġdisp": 1641,
      "Ġliege": 1642,
      "Ġbelieve": 1643,
      "Ġspirit": 1644,
      "ĠBolingbroke": 1645,
      "ever": 1646,
      "Ġair": 1647,
      "Ġage": 1648,
      "Ġsil": 1649,
      "Ġlearn": 1650,
      "ĠAway": 1651,
      "Ġheir": 1652,
      "ĠWh": 1653,
      "ets": 1654,
      "ĠSome": 1655,
      "ĠSignior": 1656,
      "ĠHa": 1657,
      "ains": 1658,
      "ift": 1659,
      "Ġloss": 1660,
      "Ġsays": 1661,
      "Ġjo": 1662,
      "Ġpoint": 1663,
      "ĠWhose": 1664,
      "ĠOne": 1665,
      "ĠShould": 1666,
      "aid": 1667,
      "ial": 1668,
      "ner": 1669,
      "Ġbat": 1670,
      "Ġfly": 1671,
      "Ġcry": 1672,
      "Ġpast": 1673,
      "ced": 1674,
      "ĠCoriol": 1675,
      "Ġfriar": 1676,
      "Ġtrust": 1677,
      "Ġdesire": 1678,
      "Ġhaste": 1679,
      "Ġentreat": 1680,
      "Ġjustice": 1681,
      "Ġdevil": 1682,
      "Ġinstru": 1683,
      "Ġground": 1684,
      "ĠFarewell": 1685,
      "gu": 1686,
      "ges": 1687,
      "night": 1688,
      "sh": 1689,
      "Ġord": 1690,
      "outh": 1691,
      "Ġmur": 1692,
      "ina": 1693,
      "ined": 1694,
      "Ġbold": 1695,
      "Ġfound": 1696,
      "Ġnear": 1697,
      "Ġtoward": 1698,
      "ĠSen": 1699,
      "ĠLike": 1700,
      "ĠFrance": 1701,
      "ĠPray": 1702,
      "Ġfast": 1703,
      "Ġvis": 1704,
      "aud": 1705,
      "aking": 1706,
      "Ġslain": 1707,
      "Ġbetw": 1708,
      "ixt": 1709,
      "Ġservice": 1710,
      "Ġstraight": 1711,
      "Ġremember": 1712,
      "FID": 1713,
      "IZ": 1714,
      "LE": 1715,
      "LOR": 1716,
      "UFID": 1717,
      "Ġcurse": 1718,
      "ĠAUFID": 1719,
      "oman": 1720,
      "ution": 1721,
      "ĠMessenger": 1722,
      "Ġwear": 1723,
      "Ġstrong": 1724,
      "ĠFLOR": 1725,
      "ĠGl": 1726,
      "ĠThese": 1727,
      "Ġquick": 1728,
      "Ġmarried": 1729,
      "Ġalone": 1730,
      "Ġhard": 1731,
      "Ġworthy": 1732,
      "Ġbeauty": 1733,
      "IZEL": 1734,
      "ĠAUFIDIUS": 1735,
      "ĠFLORIZEL": 1736,
      "TON": 1737,
      "ning": 1738,
      "xt": 1739,
      "Ġtouch": 1740,
      "Ġwoo": 1741,
      "Ġfit": 1742,
      "ithe": 1743,
      "Ġhu": 1744,
      "Ġopen": 1745,
      "Ġgrant": 1746,
      "Ġbec": 1747,
      "let": 1748,
      "ĠSee": 1749,
      "adam": 1750,
      "Ġready": 1751,
      "ION": 1752,
      "Ġbrought": 1753,
      "ured": 1754,
      "Ġposs": 1755,
      "ĠClaud": 1756,
      "Ġexec": 1757,
      "Ġrun": 1758,
      "Ġenemy": 1759,
      "Ġrevenge": 1760,
      "Ġgeneral": 1761,
      "ĠClaudio": 1762,
      "!'": 1763,
      "bs": 1764,
      "gs": 1765,
      "ible": 1766,
      "Ġfur": 1767,
      "Ġduty": 1768,
      "Ġyouth": 1769,
      "Ġinc": 1770,
      "Ġinf": 1771,
      "cept": 1772,
      "Ġiss": 1773,
      "Ġitself": 1774,
      "Ġdeli": 1775,
      "Ġlose": 1776,
      "ERS": 1777,
      "aunt": 1778,
      "Ġknows": 1779,
      "Ġcanst": 1780,
      "inks": 1781,
      "Ġquar": 1782,
      "Ġprof": 1783,
      "umber": 1784,
      "Ġthoughts": 1785,
      "Ġhours": 1786,
      "Ġcharge": 1787,
      "Ġconfess": 1788,
      "ĠGentleman": 1789,
      "ĠSenator": 1790,
      "AS": 1791,
      "BAST": 1792,
      "CIUS": 1793,
      "EBAST": 1794,
      "cester": 1795,
      "pl": 1796,
      "ship": 1797,
      "ua": 1798,
      "vo": 1799,
      "Ġmorn": 1800,
      "Ġfeel": 1801,
      "Ġpar": 1802,
      "ĠAgainst": 1803,
      "ĠBec": 1804,
      "ĠSEBAST": 1805,
      "ĠMaster": 1806,
      "ĠMadam": 1807,
      "illo": 1808,
      "riage": 1809,
      "Ġread": 1810,
      "Ġdel": 1811,
      "Ġspeed": 1812,
      "Ġdesp": 1813,
      "Ġtwenty": 1814,
      "Ġstands": 1815,
      "ĠMARCIUS": 1816,
      "ĠShepherd": 1817,
      "ched": 1818,
      "Ġstreng": 1819,
      "ĠMontague": 1820,
      "ĠGlou": 1821,
      "ithee": 1822,
      "ĠSEBASTIAN": 1823,
      "OW": 1824,
      "cess": 1825,
      "eep": 1826,
      "op": 1827,
      "ted": 1828,
      "Ġfore": 1829,
      "Ġfield": 1830,
      "Ġdiv": 1831,
      "Ġpost": 1832,
      "Ġhell": 1833,
      "ingham": 1834,
      "Ġbehold": 1835,
      "Ġhalf": 1836,
      "oop": 1837,
      "ĠPr": 1838,
      "olk": 1839,
      "fection": 1840,
      "Ġjud": 1841,
      "ump": 1842,
      "Ġfearful": 1843,
      "Ġmock": 1844,
      "Ġresol": 1845,
      "Ġcounsel": 1846,
      "ĠCamillo": 1847,
      "DEL": 1848,
      "no": 1849,
      "Ġter": 1850,
      "Ġmin": 1851,
      "Ġwret": 1852,
      "Ġbound": 1853,
      "Ġbos": 1854,
      "Ġdam": 1855,
      "Ġcut": 1856,
      "Ġye": 1857,
      "ĠTill": 1858,
      "ĠBo": 1859,
      "ĠBuck": 1860,
      "ĠBION": 1861,
      "Ġeach": 1862,
      "ads": 1863,
      "alm": 1864,
      "Ġshort": 1865,
      "ĠVol": 1866,
      "Ġknown": 1867,
      "Ġwork": 1868,
      "ortal": 1869,
      "Ġhearts": 1870,
      "Ġmarriage": 1871,
      "Ġhonest": 1872,
      "Ġtrib": 1873,
      "ĠHastings": 1874,
      "ĠGloucester": 1875,
      "DELLO": 1876,
      "Ġbosom": 1877,
      "ĠBuckingham": 1878,
      "ĠBIONDELLO": 1879,
      "folk": 1880,
      "iers": 1881,
      "of": 1882,
      "pare": 1883,
      "sc": 1884,
      "the": 1885,
      "Ġve": 1886,
      "Ġtit": 1887,
      "Ġten": 1888,
      "Ġtale": 1889,
      "Ġwhi": 1890,
      "Ġwonder": 1891,
      "Ġwidow": 1892,
      "Ġbit": 1893,
      "ones": 1894,
      "Ġdish": 1895,
      "ench": 1896,
      "ĠCap": 1897,
      "rah": 1898,
      "ĠThus": 1899,
      "Ġsuit": 1900,
      "Ġseek": 1901,
      "ĠNorfolk": 1902,
      "Ġwomen": 1903,
      "Ġharm": 1904,
      "Ġcompany": 1905,
      "Ġguilt": 1906,
      "Ġhighness": 1907,
      "Ġstrike": 1908,
      "Ġdraw": 1909,
      "Ġattend": 1910,
      "Ġserve": 1911,
      "Ġvoices": 1912,
      "Ġsomething": 1913,
      "Ġmurder": 1914,
      "ĠVols": 1915,
      "OP": 1916,
      "Tw": 1917,
      "hood": 1918,
      "most": 1919,
      "Ġag": 1920,
      "Ġsing": 1921,
      "Ġsat": 1922,
      "Ġside": 1923,
      "Ġwatch": 1924,
      "Ġbur": 1925,
      "ished": 1926,
      "Ġcor": 1927,
      "ĠAUM": 1928,
      "ĠCA": 1929,
      "ander": 1930,
      "Ġloving": 1931,
      "Ġknew": 1932,
      "ERLE": 1933,
      "Ġdidst": 1934,
      "Ġdist": 1935,
      "Ġgentlemen": 1936,
      "ĠANTON": 1937,
      "Ġpret": 1938,
      "Ġheavens": 1939,
      "Ġchange": 1940,
      "ĠLucentio": 1941,
      "Ġstrength": 1942,
      "ĠAUMERLE": 1943,
      "ĠANTONIO": 1944,
      "ALO": 1945,
      "ZALO": 1946,
      "Ġact": 1947,
      "Ġsake": 1948,
      "Ġwast": 1949,
      "ĠTran": 1950,
      "ĠWel": 1951,
      "ĠBian": 1952,
      "ents": 1953,
      "Ġstir": 1954,
      "ĠLanc": 1955,
      "ĠGON": 1956,
      "ĠPet": 1957,
      "ĠMarry": 1958,
      "Ġaff": 1959,
      "Ġcloud": 1960,
      "Ġpleasure": 1961,
      "Ġenter": 1962,
      "Ġbrave": 1963,
      "ethinks": 1964,
      "Ġenemies": 1965,
      "ĠLancaster": 1966,
      "ĠGONZALO": 1967,
      "bly": 1968,
      "fid": 1969,
      "ives": 1970,
      "Ġty": 1971,
      "Ġsign": 1972,
      "Ġmusic": 1973,
      "Ġwa": 1974,
      "rew": 1975,
      "Ġbreat": 1976,
      "Ġdr": 1977,
      "Ġpra": 1978,
      "Ġpie": 1979,
      "Ġpale": 1980,
      "Ġgar": 1981,
      "Ġgates": 1982,
      "ĠSw": 1983,
      "ĠHER": 1984,
      "ĠMost": 1985,
      "oose": 1986,
      "ĠLady": 1987,
      "ĠPom": 1988,
      "ils": 1989,
      "Ġnext": 1990,
      "Ġcoming": 1991,
      "Ġthanks": 1992,
      "Ġext": 1993,
      "ĠUnt": 1994,
      "Ġclose": 1995,
      "Ġsouls": 1996,
      "Ġbegg": 1997,
      "Ġcourse": 1998,
      "Ġwithal": 1999,
      "Ġchee": 2000,
      "ceived": 2001,
      "Ġsuffer": 2002,
      "Ġdeliver": 2003,
      "Ġtitle": 2004,
      "ĠBianca": 2005,
      "DIO": 2006,
      "be": 2007,
      "vour": 2008,
      "Ġsk": 2009,
      "Ġsick": 2010,
      "ĠAu": 2011,
      "oward": 2012,
      "Ġbecome": 2013,
      "etch": 2014,
      "Ġforg": 2015,
      "ĠCh": 2016,
      "ĠCLIFF": 2017,
      "Ġweak": 2018,
      "Ġeither": 2019,
      "Ġlips": 2020,
      "Ġthemselves": 2021,
      "els": 2022,
      "Ġjest": 2023,
      "Ġplain": 2024,
      "Ġabs": 2025,
      "Ġrich": 2026,
      "AUDIO": 2027,
      "Ġgrie": 2028,
      "ĠCLAUDIO": 2029,
      "claim": 2030,
      "MIONE": 2031,
      "Ġpatience": 2032,
      "ĠRich": 2033,
      "Ġorder": 2034,
      "ĠPetru": 2035,
      "ĠHERMIONE": 2036,
      "ĠCLIFFORD": 2037,
      "DA": 2038,
      "kes": 2039,
      "ses": 2040,
      "Ġac": 2041,
      "Ġsame": 2042,
      "Ġwis": 2043,
      "Ġwall": 2044,
      "rest": 2045,
      "ready": 2046,
      "isf": 2047,
      "lly": 2048,
      "Ġcast": 2049,
      "arry": 2050,
      "irth": 2051,
      "ĠBes": 2052,
      "ĠSince": 2053,
      "chio": 2054,
      "ĠMake": 2055,
      "Ġforb": 2056,
      "Ġforget": 2057,
      "ĠCall": 2058,
      "oof": 2059,
      "ries": 2060,
      "ĠLORD": 2061,
      "Ġreg": 2062,
      "race": 2063,
      "urp": 2064,
      "east": 2065,
      "ĠEL": 2066,
      "Ġven": 2067,
      "Ġsworn": 2068,
      "Ġworse": 2069,
      "Ġprop": 2070,
      "Ġtook": 2071,
      "ĠJO": 2072,
      "Ġpoison": 2073,
      "Ġalong": 2074,
      "ĠBeing": 2075,
      "Ġbreast": 2076,
      "Ġconsul": 2077,
      "RANDA": 2078,
      "twas": 2079,
      "twere": 2080,
      "Ġcheer": 2081,
      "Ġvirtue": 2082,
      "Ġmerry": 2083,
      "ĠMIRANDA": 2084,
      "Ġfurther": 2085,
      "ĠTranio": 2086,
      "fidius": 2087,
      "ĠAufidius": 2088,
      "ĠPetruchio": 2089,
      "HN": 2090,
      "SON": 2091,
      "cy": 2092,
      "lst": 2093,
      "mit": 2094,
      "Ġta": 2095,
      "Ġmouth": 2096,
      "Ġwed": 2097,
      "Ġwise": 2098,
      "Ġbad": 2099,
      "Ġbook": 2100,
      "Ġfour": 2101,
      "Ġdu": 2102,
      "Ġdire": 2103,
      "Ġcr": 2104,
      "Ġgave": 2105,
      "Ġemb": 2106,
      "Ġred": 2107,
      "Ġliber": 2108,
      "Ġsoft": 2109,
      "ĠRe": 2110,
      "vern": 2111,
      "Ġself": 2112,
      "rust": 2113,
      "ions": 2114,
      "Ġloves": 2115,
      "rows": 2116,
      "ally": 2117,
      "Ġenc": 2118,
      "Ġoffice": 2119,
      "Ġalready": 2120,
      "Ġwrit": 2121,
      "Ġmove": 2122,
      "ĠHereford": 2123,
      "Ġbegin": 2124,
      "Ġconsent": 2125,
      "ĠAlas": 2126,
      "Ġgiven": 2127,
      "Ġrequest": 2128,
      "Ġdangerous": 2129,
      "Ġbattle": 2130,
      "Ġissue": 2131,
      "Ġmorning": 2132,
      "ĠJOHN": 2133,
      "fter": 2134,
      "mond": 2135,
      "mber": 2136,
      "nk": 2137,
      "pes": 2138,
      "rist": 2139,
      "uous": 2140,
      "used": 2141,
      "Ġburn": 2142,
      "orge": 2143,
      "Ġfrown": 2144,
      "Ġfeast": 2145,
      "Ġlad": 2146,
      "Ġpay": 2147,
      "ĠTower": 2148,
      "anus": 2149,
      "Ġgro": 2150,
      "ats": 2151,
      "ĠYes": 2152,
      "each": 2153,
      "Ġsucc": 2154,
      "Ġneither": 2155,
      "icer": 2156,
      "Ġblack": 2157,
      "Ġgoes": 2158,
      "Ġsons": 2159,
      "Ġexp": 2160,
      "Ġfoe": 2161,
      "ĠBefore": 2162,
      "Ġtrou": 2163,
      "dden": 2164,
      "Ġsoldiers": 2165,
      "Ġwounds": 2166,
      "ĠSpeak": 2167,
      "Ġbetween": 2168,
      "Ġquarrel": 2169,
      "Ġsatisf": 2170,
      "ĠRichmond": 2171,
      "NT": 2172,
      "chan": 2173,
      "ging": 2174,
      "gare": 2175,
      "ires": 2176,
      "ures": 2177,
      "Ġest": 2178,
      "hem": 2179,
      "Ġsigh": 2180,
      "Ġmal": 2181,
      "Ġbar": 2182,
      "Ġbaw": 2183,
      "Ġdro": 2184,
      "Ġdark": 2185,
      "Ġcase": 2186,
      "Ġthri": 2187,
      "aris": 2188,
      "Ġhot": 2189,
      "ĠAb": 2190,
      "ĠAr": 2191,
      "ots": 2192,
      "owers": 2193,
      "Ġoften": 2194,
      "Ġhaving": 2195,
      "ĠMust": 2196,
      "Ġund": 2197,
      "Ġspeech": 2198,
      "Ġvict": 2199,
      "Ġbless": 2200,
      "empt": 2201,
      "Ġthence": 2202,
      "Ġpresence": 2203,
      "TESBY": 2204,
      "Ġpriv": 2205,
      "Ġbride": 2206,
      "Ġbrief": 2207,
      "Ġservant": 2208,
      "ĠUnless": 2209,
      "ĠSuch": 2210,
      "Ġwater": 2211,
      "ĠBecause": 2212,
      "ĠCATESBY": 2213,
      "ĠWelcome": 2214,
      "garet": 2215,
      "ILI": 2216,
      "oint": 2217,
      "Ġmortal": 2218,
      "Ġbow": 2219,
      "Ġble": 2220,
      "ona": 2221,
      "Ġtown": 2222,
      "Ġpen": 2223,
      "Ġgot": 2224,
      "Ġinter": 2225,
      "irm": 2226,
      "ĠBoth": 2227,
      "ĠBapt": 2228,
      "ĠSaint": 2229,
      "Ġev": 2230,
      "ĠLond": 2231,
      "ĠTheir": 2232,
      "alth": 2233,
      "Ġsum": 2234,
      "ĠKeep": 2235,
      "ends": 2236,
      "emn": 2237,
      "Ġloved": 2238,
      "Ġkings": 2239,
      "cient": 2240,
      "Ġwars": 2241,
      "Ġflatter": 2242,
      "ĠMargaret": 2243,
      "ĠGREY": 2244,
      "Ġmighty": 2245,
      "Ġrespect": 2246,
      "Ġcompl": 2247,
      "Ġdread": 2248,
      "Ġseems": 2249,
      "Ġthrone": 2250,
      "Ġvoice": 2251,
      "Ġdeny": 2252,
      "Ġspoke": 2253,
      "ĠWhom": 2254,
      "ĠCoriolanus": 2255,
      "Ġvisit": 2256,
      "ĠBaptist": 2257,
      "ĠLondon": 2258,
      "CA": 2259,
      "IV": 2260,
      "bed": 2261,
      "eorge": 2262,
      "ip": 2263,
      "iant": 2264,
      "so": 2265,
      "ught": 2266,
      "Ġaction": 2267,
      "oun": 2268,
      "Ġbro": 2269,
      "Ġbab": 2270,
      "Ġfra": 2271,
      "ern": 2272,
      "Ġcol": 2273,
      "Ġcap": 2274,
      "Ġhur": 2275,
      "ĠBIAN": 2276,
      "ourn": 2277,
      "ĠLest": 2278,
      "ĠGeorge": 2279,
      "ided": 2280,
      "ĠParis": 2281,
      "ĠRIV": 2282,
      "ĠEre": 2283,
      "ĠDe": 2284,
      "Ġsudden": 2285,
      "Ġancient": 2286,
      "Ġknock": 2287,
      "Ġvow": 2288,
      "Ġprot": 2289,
      "Ġworship": 2290,
      "Ġsafe": 2291,
      "ired": 2292,
      "ĠIsab": 2293,
      "Ġprayers": 2294,
      "ainted": 2295,
      "Ġappear": 2296,
      "Ġprincely": 2297,
      "Ġchamber": 2298,
      "Ġbuy": 2299,
      "Ġdeeds": 2300,
      "Ġpromise": 2301,
      "Ġbitter": 2302,
      "Ġdishon": 2303,
      "ILIA": 2304,
      "ĠBaptista": 2305,
      "ĠBIANCA": 2306,
      "ĠRIVERS": 2307,
      "BOW": 2308,
      "ls": 2309,
      "lish": 2310,
      "now": 2311,
      "nown": 2312,
      "ura": 2313,
      "Ġign": 2314,
      "Ġfres": 2315,
      "Ġfetch": 2316,
      "Ġcreat": 2317,
      "Ġcross": 2318,
      "Ġcoward": 2319,
      "Ġlim": 2320,
      "esh": 2321,
      "essed": 2322,
      "Ġopp": 2323,
      "Ġpu": 2324,
      "otion": 2325,
      "stand": 2326,
      "ated": 2327,
      "right": 2328,
      "ĠGAU": 2329,
      "Ġreb": 2330,
      "urch": 2331,
      "ĠRoman": 2332,
      "cks": 2333,
      "Ġang": 2334,
      "Ġviol": 2335,
      "antage": 2336,
      "oney": 2337,
      "Ġkingdom": 2338,
      "Ġsac": 2339,
      "Ġflesh": 2340,
      "Ġrage": 2341,
      "Ġprepare": 2342,
      "Ġheads": 2343,
      "Ġscorn": 2344,
      "Ġappro": 2345,
      "Ġlead": 2346,
      "ĠStand": 2347,
      "Ġwitness": 2348,
      "Ġtriump": 2349,
      "Ġpresently": 2350,
      "Ġpatient": 2351,
      "Ġlament": 2352,
      "Ġvaliant": 2353,
      "ĠELBOW": 2354,
      "Ġsuccess": 2355,
      "Ġbawd": 2356,
      "ĠGAUNT": 2357,
      "GUE": 2358,
      "UR": 2359,
      "bit": 2360,
      "ler": 2361,
      "mand": 2362,
      "sper": 2363,
      "to": 2364,
      "xford": 2365,
      "Ġcle": 2366,
      "Ġlack": 2367,
      "Ġlab": 2368,
      "Ġthrow": 2369,
      "Ġow": 2370,
      "Ġpit": 2371,
      "ĠTY": 2372,
      "Ġgall": 2373,
      "Ġins": 2374,
      "ĠBl": 2375,
      "ĠHort": 2376,
      "ĠMON": 2377,
      "ĠMerc": 2378,
      "Ġforward": 2379,
      "Ġeat": 2380,
      "ĠOxford": 2381,
      "Ġkins": 2382,
      "urs": 2383,
      "iff": 2384,
      "ĠThink": 2385,
      "antag": 2386,
      "Ġprin": 2387,
      "Ġprithee": 2388,
      "Ġwash": 2389,
      "Ġunw": 2390,
      "aken": 2391,
      "Ġoffer": 2392,
      "Ġleast": 2393,
      "Ġslave": 2394,
      "Ġscar": 2395,
      "Ġmoon": 2396,
      "ensio": 2397,
      "Ġfaults": 2398,
      "Ġsecret": 2399,
      "Ġdefend": 2400,
      "TAGUE": 2401,
      "Ġtribunes": 2402,
      "Ġdrink": 2403,
      "ĠChrist": 2404,
      "ĠHortensio": 2405,
      "ĠMONTAGUE": 2406,
      "ac": 2407,
      "aul": 2408,
      "ees": 2409,
      "king": 2410,
      "po": 2411,
      "ued": 2412,
      "vest": 2413,
      "ying": 2414,
      "Ġid": 2415,
      "Ġsur": 2416,
      "Ġmid": 2417,
      "ines": 2418,
      "Ġben": 2419,
      "Ġfie": 2420,
      "Ġdest": 2421,
      "Ġnay": 2422,
      "Ġthither": 2423,
      "Ġhide": 2424,
      "Ġocc": 2425,
      "athar": 2426,
      "Ġbeast": 2427,
      "ĠWhi": 2428,
      "ley": 2429,
      "ĠHark": 2430,
      "ĠCon": 2431,
      "ĠGre": 2432,
      "als": 2433,
      "ĠDoth": 2434,
      "ĠKathar": 2435,
      "thumber": 2436,
      "host": 2437,
      "asters": 2438,
      "feit": 2439,
      "aked": 2440,
      "pey": 2441,
      "ĠJo": 2442,
      "Ġalmost": 2443,
      "Ġslaughter": 2444,
      "ully": 2445,
      "ĠNorthumber": 2446,
      "Ġsmall": 2447,
      "Ġchance": 2448,
      "Ġdepart": 2449,
      "Ġsubjects": 2450,
      "Ġpossess": 2451,
      "Ġexecution": 2452,
      "Ġdamn": 2453,
      "ĠBohem": 2454,
      "Ġpretty": 2455,
      "ĠPompey": 2456,
      "ĠKatharina": 2457,
      "ĠNorthumberland": 2458,
      "GILIA": 2459,
      "ITA": 2460,
      "RGILIA": 2461,
      "hind": 2462,
      "Ġut": 2463,
      "Ġtear": 2464,
      "Ġwert": 2465,
      "Ġbase": 2466,
      "Ġbirth": 2467,
      "Ġfill": 2468,
      "Ġfond": 2469,
      "Ġcertain": 2470,
      "arl": 2471,
      "Ġpain": 2472,
      "ĠAd": 2473,
      "ĠAm": 2474,
      "inger": 2475,
      "Ġinno": 2476,
      "ĠBr": 2477,
      "ĠHold": 2478,
      "Ġform": 2479,
      "ĠCa": 2480,
      "Ġeas": 2481,
      "Ġstru": 2482,
      "Ġliving": 2483,
      "ĠPeace": 2484,
      "ĠPERD": 2485,
      "ĠPaul": 2486,
      "ĠEx": 2487,
      "rum": 2488,
      "Ġfavour": 2489,
      "Ġgoodly": 2490,
      "Ġusurp": 2491,
      "cience": 2492,
      "Ġproceed": 2493,
      "Ġhadst": 2494,
      "umb": 2495,
      "Ġwhence": 2496,
      "Ġtrump": 2497,
      "Ġoffence": 2498,
      "Ġhearing": 2499,
      "Ġperform": 2500,
      "perate": 2501,
      "ledge": 2502,
      "ĠVIRGILIA": 2503,
      "Ġglad": 2504,
      "Ġvirtuous": 2505,
      "Ġawhile": 2506,
      "Ġquickly": 2507,
      "then": 2508,
      "ĠSweet": 2509,
      "ural": 2510,
      "ĠBohemia": 2511,
      "ĠPERDITA": 2512,
      "LY": 2513,
      "ding": 2514,
      "dge": 2515,
      "eem": 2516,
      "iest": 2517,
      "over": 2518,
      "ror": 2519,
      "ze": 2520,
      "Ġtor": 2521,
      "Ġay": 2522,
      "Ġshi": 2523,
      "Ġmatch": 2524,
      "Ġmild": 2525,
      "Ġwalk": 2526,
      "Ġwild": 2527,
      "isure": 2528,
      "orth": 2529,
      "Ġfier": 2530,
      "ities": 2531,
      "Ġca": 2532,
      "omes": 2533,
      "Ġinj": 2534,
      "eds": 2535,
      "edant": 2536,
      "ĠSLY": 2537,
      "Ġforsw": 2538,
      "Ġur": 2539,
      "raw": 2540,
      "ĠYea": 2541,
      "Ġshad": 2542,
      "Ġknee": 2543,
      "Ġkneel": 2544,
      "astard": 2545,
      "Ġblows": 2546,
      "Ġworst": 2547,
      "Ġquiet": 2548,
      "ĠOff": 2549,
      "ustom": 2550,
      "Ġgreater": 2551,
      "Ġaffection": 2552,
      "Ġpleas": 2553,
      "ĠMARIAN": 2554,
      "Ġleisure": 2555,
      "ĠStay": 2556,
      "Ġslew": 2557,
      "force": 2558,
      "Ġtreason": 2559,
      "Ġlawful": 2560,
      "Ġchurch": 2561,
      "Ġweeping": 2562,
      "Ġsoldier": 2563,
      "Ġdeserved": 2564,
      "Ġguilty": 2565,
      "ĠIsabel": 2566,
      "Ġangry": 2567,
      "ĠMARIANA": 2568,
      "awn": 2569,
      "fully": 2570,
      "gg": 2571,
      "gue": 2572,
      "joy": 2573,
      "ked": 2574,
      "med": 2575,
      "ual": 2576,
      "vol": 2577,
      "zen": 2578,
      "Ġap": 2579,
      "Ġsho": 2580,
      "Ġmed": 2581,
      "Ġmod": 2582,
      "Ġwon": 2583,
      "read": 2584,
      "Ġfam": 2585,
      "Ġfled": 2586,
      "ony": 2587,
      "Ġcitizen": 2588,
      "Ġlist": 2589,
      "Ġyear": 2590,
      "eness": 2591,
      "arn": 2592,
      "aring": 2593,
      "ĠTw": 2594,
      "Ġbehind": 2595,
      "ĠWatch": 2596,
      "ĠWhile": 2597,
      "Ġhap": 2598,
      "ĠBel": 2599,
      "Ġmeasure": 2600,
      "ĠST": 2601,
      "ĠMen": 2602,
      "ĠMist": 2603,
      "Ġem": 2604,
      "adua": 2605,
      "ĠOut": 2606,
      "ĠGrem": 2607,
      "ĠGrum": 2608,
      "Ġreign": 2609,
      "ĠPAR": 2610,
      "ĠPadua": 2611,
      "Ġsole": 2612,
      "Ġdoom": 2613,
      "Ġnob": 2614,
      "ames": 2615,
      "rupt": 2616,
      "Ġourselves": 2617,
      "Ġneck": 2618,
      "Ġshows": 2619,
      "ended": 2620,
      "Ġshepherd": 2621,
      "Ġblow": 2622,
      "Ġgovern": 2623,
      "Ġwouldst": 2624,
      "Ġletter": 2625,
      "Ġletters": 2626,
      "Ġunc": 2627,
      "Ġunk": 2628,
      "Ġspeaks": 2629,
      "Ġmarch": 2630,
      "ighb": 2631,
      "Ġcontin": 2632,
      "osition": 2633,
      "Ġneeds": 2634,
      "ĠEnglish": 2635,
      "Ġsentence": 2636,
      "Ġprisoner": 2637,
      "Ġbanishment": 2638,
      "Ġsecond": 2639,
      "Ġsense": 2640,
      "Ġcondemn": 2641,
      "ĠPlantag": 2642,
      "Ġbecause": 2643,
      "Ġclouds": 2644,
      "Ġbreathe": 2645,
      "Ġforbid": 2646,
      "Ġliberty": 2647,
      "Ġencoun": 2648,
      "Ġladies": 2649,
      "Ġtrouble": 2650,
      "Ġdishonour": 2651,
      "Ġignor": 2652,
      "ĠGremio": 2653,
      "ĠGrumio": 2654,
      "ĠPARIS": 2655,
      "ĠPlantagen": 2656,
      ":'": 2657,
      "aves": 2658,
      "acle": 2659,
      "dle": 2660,
      "oor": 2661,
      "oss": 2662,
      "rous": 2663,
      "ĠX": 2664,
      "Ġsort": 2665,
      "Ġmut": 2666,
      "Ġmorrow": 2667,
      "ndred": 2668,
      "Ġbig": 2669,
      "Ġbones": 2670,
      "Ġfive": 2671,
      "ĠInt": 2672,
      "Ġdry": 2673,
      "Ġcru": 2674,
      "Ġlan": 2675,
      "Ġlaid": 2676,
      "Ġpet": 2677,
      "ĠToo": 2678,
      "ĠTru": 2679,
      "ĠAnt": 2680,
      "Ġheld": 2681,
      "vel": 2682,
      "ster": 2683,
      "ingly": 2684,
      "Ġoft": 2685,
      "ators": 2686,
      "Ġnote": 2687,
      "ĠHea": 2688,
      "Ġstor": 2689,
      "Ġsteal": 2690,
      "ĠFear": 2691,
      "ĠGaunt": 2692,
      "Ġref": 2693,
      "ider": 2694,
      "Ġlived": 2695,
      "Ġaside": 2696,
      "Ġdog": 2697,
      "Ġnoise": 2698,
      "Ġseat": 2699,
      "iles": 2700,
      "Ġvain": 2701,
      "Ġgrand": 2702,
      "Ġproclaim": 2703,
      "Ġprosper": 2704,
      "Ġrough": 2705,
      "Ġabove": 2706,
      "ize": 2707,
      "ĠPETER": 2708,
      "Ġappare": 2709,
      "Ġremain": 2710,
      "Ġlonger": 2711,
      "Ġwomb": 2712,
      "Ġconscience": 2713,
      "ĠSirrah": 2714,
      "Ġchoose": 2715,
      "Ġobey": 2716,
      "Ġtemp": 2717,
      "Ġdrunk": 2718,
      "Ġgolden": 2719,
      "Ġdispatch": 2720,
      "Ġjoin": 2721,
      "Ġhundred": 2722,
      "Ġpiece": 2723,
      "Ġvictory": 2724,
      "ointed": 2725,
      "Ġfresh": 2726,
      "ĠPlantagenet": 2727,
      "!--": 2728,
      "TIUS": 2729,
      "WIS": 2730,
      "aith": 2731,
      "bb": 2732,
      "ban": 2733,
      "ffect": 2734,
      "hn": 2735,
      "iled": 2736,
      "ny": 2737,
      "rim": 2738,
      "ts": 2739,
      "ulet": 2740,
      "Ġtent": 2741,
      "Ġsch": 2742,
      "Ġsus": 2743,
      "Ġsaint": 2744,
      "inius": 2745,
      "Ġbroke": 2746,
      "Ġfat": 2747,
      "Ġfine": 2748,
      "erle": 2749,
      "Ġdrown": 2750,
      "Ġlen": 2751,
      "Ġlow": 2752,
      "Ġlau": 2753,
      "Ġlust": 2754,
      "Ġthreat": 2755,
      "ĠARI": 2756,
      "vey": 2757,
      "Ġbend": 2758,
      "set": 2759,
      "Ġind": 2760,
      "ceit": 2761,
      "lease": 2762,
      "ety": 2763,
      "ĠSc": 2764,
      "ĠHear": 2765,
      "ĠMe": 2766,
      "ĠCould": 2767,
      "ĠCates": 2768,
      "Ġeffect": 2769,
      "Ġyourselves": 2770,
      "Ġsto": 2771,
      "Ġstood": 2772,
      "Ġstain": 2773,
      "Ġsteel": 2774,
      "ĠLAR": 2775,
      "Ġrevere": 2776,
      "asion": 2777,
      "ĠPer": 2778,
      "Ġdoing": 2779,
      "ĠEn": 2780,
      "ĠEarl": 2781,
      "ĠDOR": 2782,
      "Ġknees": 2783,
      "ular": 2784,
      "Ġconqu": 2785,
      "icious": 2786,
      "ieu": 2787,
      "Ġshed": 2788,
      "Ġblessed": 2789,
      "Ġknowledge": 2790,
      "Ġswift": 2791,
      "ounds": 2792,
      "Ġsaf": 2793,
      "ume": 2794,
      "Ġexc": 2795,
      "Ġdesperate": 2796,
      "Ġwarm": 2797,
      "Ġslander": 2798,
      "Ġprecious": 2799,
      "Ġbears": 2800,
      "ĠLEWIS": 2801,
      "Ġentertain": 2802,
      "Ġpride": 2803,
      "Ġpurs": 2804,
      "uthor": 2805,
      "Ġglory": 2806,
      "Ġdouble": 2807,
      "Ġwoes": 2808,
      "posed": 2809,
      "Ġlands": 2810,
      "Ġobed": 2811,
      "Ġcounter": 2812,
      "Ġtowards": 2813,
      "Ġdespair": 2814,
      "ĠCapulet": 2815,
      "ĠUnto": 2816,
      "Ġforgot": 2817,
      "Ġwisdom": 2818,
      "Ġvenge": 2819,
      "Ġlabour": 2820,
      "Ġkinsman": 2821,
      "Ġcitizens": 2822,
      "ĠWatchman": 2823,
      "Ġencounter": 2824,
      "ĠXI": 2825,
      "ĠARIEL": 2826,
      "ĠCatesby": 2827,
      "ĠLARTIUS": 2828,
      ";'": 2829,
      "PSON": 2830,
      "bray": 2831,
      "gment": 2832,
      "iance": 2833,
      "ude": 2834,
      "uff": 2835,
      "vail": 2836,
      "Ġauthor": 2837,
      "Ġsour": 2838,
      "Ġmount": 2839,
      "Ġmethinks": 2840,
      "Ġmoney": 2841,
      "Ġmasters": 2842,
      "rent": 2843,
      "rence": 2844,
      "Ġbastard": 2845,
      "Ġfe": 2846,
      "Ġfru": 2847,
      "Ġfought": 2848,
      "Ġfew": 2849,
      "itors": 2850,
      "Ġdance": 2851,
      "Ġdied": 2852,
      "Ġdeter": 2853,
      "Ġcorn": 2854,
      "Ġcapt": 2855,
      "Ġpun": 2856,
      "ĠAum": 2857,
      "Ġhealth": 2858,
      "owbray": 2859,
      "ang": 2860,
      "Ġhair": 2861,
      "irl": 2862,
      "ĠSAM": 2863,
      "ĠMowbray": 2864,
      "ĠCons": 2865,
      "ĠCUR": 2866,
      "Ġeld": 2867,
      "Ġstud": 2868,
      "ĠFri": 2869,
      "ĠPedant": 2870,
      "estion": 2871,
      "ease": 2872,
      "ĠDis": 2873,
      "Ġseal": 2874,
      "Ġsever": 2875,
      "iful": 2876,
      "ility": 2877,
      "cted": 2878,
      "Ġmanner": 2879,
      "Ġconst": 2880,
      "ĠVer": 2881,
      "Ġuns": 2882,
      "Ġquoth": 2883,
      "Ġplant": 2884,
      "Ġenjoy": 2885,
      "ĠWithin": 2886,
      "Ġran": 2887,
      "Ġalive": 2888,
      "Ġabro": 2889,
      "Ġfoll": 2890,
      "Ġhonours": 2891,
      "Ġflowers": 2892,
      "ations": 2893,
      "Ġdeadly": 2894,
      "Ġcontr": 2895,
      "Ġwhite": 2896,
      "Ġkept": 2897,
      "Ġremed": 2898,
      "Ġarmy": 2899,
      "Ġlordship": 2900,
      "ontent": 2901,
      "TIS": 2902,
      "Ġguest": 2903,
      "Ġguess": 2904,
      "Ġunderstand": 2905,
      "Ġpromised": 2906,
      "Ġwretched": 2907,
      "Ġbeggar": 2908,
      "Ġcheeks": 2909,
      "ĠKeeper": 2910,
      "ĠJohn": 2911,
      "Ġstruck": 2912,
      "Ġdeterm": 2913,
      "ĠAumerle": 2914,
      "ĠSAMPSON": 2915,
      "ĠCURTIS": 2916,
      "'re": 2917,
      ":--": 2918,
      "AT": 2919,
      "BU": 2920,
      "GON": 2921,
      "LEY": 2922,
      "bury": 2923,
      "den": 2924,
      "ne": 2925,
      "Ġtry": 2926,
      "Ġteach": 2927,
      "head": 2928,
      "Ġaid": 2929,
      "ounce": 2930,
      "Ġsim": 2931,
      "reed": 2932,
      "orious": 2933,
      "ited": 2934,
      "Ġcred": 2935,
      "Ġcried": 2936,
      "Ġpal": 2937,
      "Ġgent": 2938,
      "utio": 2939,
      "ĠMine": 2940,
      "Ġstars": 2941,
      "ĠLew": 2942,
      "ĠFl": 2943,
      "Ġliest": 2944,
      "ash": 2945,
      "ĠPut": 2946,
      "ĠPardon": 2947,
      "ĠPoor": 2948,
      "Ġdeg": 2949,
      "Ġdemand": 2950,
      "ĠNe": 2951,
      "Ġshake": 2952,
      "ament": 2953,
      "ĠEX": 2954,
      "ĠEither": 2955,
      "Ġseven": 2956,
      "Ġherself": 2957,
      "Ġspent": 2958,
      "Ġneighb": 2959,
      "Ġwhether": 2960,
      "Ġamong": 2961,
      "ief": 2962,
      "Ġgoing": 2963,
      "ppy": 2964,
      "Ġprov": 2965,
      "osed": 2966,
      "Ġtruly": 2967,
      "Ġrot": 2968,
      "Ġofficer": 2969,
      "Ġbrothers": 2970,
      "Ġearly": 2971,
      "ways": 2972,
      "Ġhonourable": 2973,
      "ĠANTI": 2974,
      "Ġcalls": 2975,
      "Ġmoved": 2976,
      "Ġaccount": 2977,
      "ĠCitizens": 2978,
      "Ġkindred": 2979,
      "Ġpriest": 2980,
      "Ġguard": 2981,
      "Ġcharity": 2982,
      "Ġfoolish": 2983,
      "Ġhumble": 2984,
      "Ġdreams": 2985,
      "Ġgreet": 2986,
      "Ġvalour": 2987,
      "Ġjudge": 2988,
      "Ġwretch": 2989,
      "Ġextrem": 2990,
      "Ġsummer": 2991,
      "Ġtriumph": 2992,
      "ĠMercutio": 2993,
      "Ġscarce": 2994,
      "Ġcruel": 2995,
      "ĠHeaven": 2996,
      "BURY": 2997,
      "GONUS": 2998,
      "ĠLewis": 2999,
      "ĠANTIGONUS": 3000,
      "BR": 3001,
      "CLIFF": 3002,
      "house": 3003,
      "lp": 3004,
      "mble": 3005,
      "pir": 3006,
      "under": 3007,
      "Ġwail": 3008,
      "ining": 3009,
      "Ġba": 3010,
      "Ġfart": 3011,
      "Ġfaint": 3012,
      "ites": 3013,
      "Ġdin": 3014,
      "Ġdwell": 3015,
      "Ġcir": 3016,
      "Ġcustom": 3017,
      "Ġyea": 3018,
      "Ġthro": 3019,
      "Ġpack": 3020,
      "Ġga": 3021,
      "Ġbeha": 3022,
      "leep": 3023,
      "ĠBet": 3024,
      "ĠBid": 3025,
      "ĠHarry": 3026,
      "ĠMade": 3027,
      "ĠMusic": 3028,
      "Ġforce": 3029,
      "Ġweary": 3030,
      "Ġease": 3031,
      "ĠOnce": 3032,
      "Ġstone": 3033,
      "ĠFaith": 3034,
      "ask": 3035,
      "ĠRAT": 3036,
      "roy": 3037,
      "ĠNever": 3038,
      "Ġbutcher": 3039,
      "ify": 3040,
      "Ġanon": 3041,
      "Ġfaire": 3042,
      "Ġours": 3043,
      "though": 3044,
      "Ġvie": 3045,
      "arted": 3046,
      "Ġblame": 3047,
      "Ġthereof": 3048,
      "Ġunf": 3049,
      "Ġprovost": 3050,
      "Ġdism": 3051,
      "Ġenvy": 3052,
      "Ġrise": 3053,
      "Ġthinks": 3054,
      "Ġwherefore": 3055,
      "Ġrid": 3056,
      "ĠMars": 3057,
      "Ġparty": 3058,
      "Ġadd": 3059,
      "Ġothers": 3060,
      "Ġimag": 3061,
      "ians": 3062,
      "Ġtrial": 3063,
      "Ġkindness": 3064,
      "Ġchast": 3065,
      "Ġsubst": 3066,
      "Ġbids": 3067,
      "Ġfellows": 3068,
      "Ġbright": 3069,
      "Ġglass": 3070,
      "Ġmiser": 3071,
      "ĠAlack": 3072,
      "Ġcrave": 3073,
      "ĠCominius": 3074,
      "Ġwinter": 3075,
      "Ġcondition": 3076,
      "Ġmonth": 3077,
      "Ġhung": 3078,
      "Ġminister": 3079,
      "ĠVolsces": 3080,
      "Twas": 3081,
      "Ġwalls": 3082,
      "Ġsatisfied": 3083,
      "Ġmalice": 3084,
      "Ġprivate": 3085,
      "Ġidle": 3086,
      "Ġbenef": 3087,
      "orthy": 3088,
      "Ġlaugh": 3089,
      "Ġvengeance": 3090,
      "Ġabroad": 3091,
      "BRA": 3092,
      "ĠRATCLIFF": 3093,
      "Ġview": 3094,
      "BAL": 3095,
      "HOP": 3096,
      "ners": 3097,
      "ope": 3098,
      "vious": 3099,
      "with": 3100,
      "Ġver": 3101,
      "Ġwre": 3102,
      "Ġwag": 3103,
      "Ġwench": 3104,
      "incentio": 3105,
      "rees": 3106,
      "Ġbite": 3107,
      "orous": 3108,
      "Ġfirm": 3109,
      "Ġdull": 3110,
      "Ġcorse": 3111,
      "Ġlest": 3112,
      "enes": 3113,
      "Ġhol": 3114,
      "ĠAfter": 3115,
      "vell": 3116,
      "omas": 3117,
      "Ġgown": 3118,
      "ating": 3119,
      "Ġbef": 3120,
      "Ġincl": 3121,
      "cell": 3122,
      "utland": 3123,
      "ĠBarn": 3124,
      "Ġmeat": 3125,
      "ĠHence": 3126,
      "ĠMant": 3127,
      "ĠMethinks": 3128,
      "Ġformer": 3129,
      "ĠFie": 3130,
      "Ġrel": 3131,
      "Ġreceived": 3132,
      "ident": 3133,
      "ĠPeter": 3134,
      "ĠPlease": 3135,
      "Ġdeal": 3136,
      "ĠRutland": 3137,
      "amp": 3138,
      "ĠDes": 3139,
      "ĠThomas": 3140,
      "Ġsport": 3141,
      "Ġvice": 3142,
      "Ġvile": 3143,
      "Ġshore": 3144,
      "Ġshrew": 3145,
      "Ġconcl": 3146,
      "Ġconvey": 3147,
      "ĠVincentio": 3148,
      "Ġblind": 3149,
      "Ġgod": 3150,
      "ANLEY": 3151,
      "allow": 3152,
      "Ġarri": 3153,
      "Ġunb": 3154,
      "Ġunl": 3155,
      "Ġunp": 3156,
      "Ġmayst": 3157,
      "Ġquite": 3158,
      "Ġquestion": 3159,
      "eless": 3160,
      "icked": 3161,
      "Ġhonesty": 3162,
      "Ġfoes": 3163,
      "Ġroot": 3164,
      "ĠLords": 3165,
      "ĠUnder": 3166,
      "Ġflower": 3167,
      "Ġafford": 3168,
      "lock": 3169,
      "Ġtongues": 3170,
      "Ġcounten": 3171,
      "Ġsmo": 3172,
      "ailor": 3173,
      "Ġcover": 3174,
      "Ġchanged": 3175,
      "rench": 3176,
      "ĠShow": 3177,
      "Ġhumour": 3178,
      "Ġswords": 3179,
      "Ġboot": 3180,
      "ISHOP": 3181,
      "Ġdeputy": 3182,
      "ĠCorioli": 3183,
      "Ġjudgment": 3184,
      "scal": 3185,
      "Ġtyrant": 3186,
      "Ġacqu": 3187,
      "Ġprophe": 3188,
      "Ġevil": 3189,
      "ĠTYBAL": 3190,
      "ĠWhilst": 3191,
      "Ġeasy": 3192,
      "ĠPaulina": 3193,
      "ĠSTANLEY": 3194,
      "ĠTrue": 3195,
      "Ġschool": 3196,
      "Ġexcuse": 3197,
      "Ġfruit": 3198,
      "ĠMantua": 3199,
      "ĠTYBALT": 3200,
      "'?": 3201,
      "AK": 3202,
      "HOM": 3203,
      "acher": 3204,
      "ek": 3205,
      "ead": 3206,
      "ered": 3207,
      "mon": 3208,
      "roth": 3209,
      "rate": 3210,
      "rison": 3211,
      "she": 3212,
      "und": 3213,
      "vish": 3214,
      "woman": 3215,
      "Ġtaken": 3216,
      "Ġwither": 3217,
      "Ġwicked": 3218,
      "Ġbrow": 3219,
      "Ġbrows": 3220,
      "Ġfain": 3221,
      "Ġfeed": 3222,
      "Ġfinger": 3223,
      "ĠInd": 3224,
      "llo": 3225,
      "Ġdust": 3226,
      "Ġcure": 3227,
      "Ġthunder": 3228,
      "Ġpains": 3229,
      "ĠTut": 3230,
      "ĠTHOM": 3231,
      "anley": 3232,
      "omer": 3233,
      "Ġgrown": 3234,
      "Ġgross": 3235,
      "Ġgift": 3236,
      "Ġghost": 3237,
      "Ġgirl": 3238,
      "att": 3239,
      "ĠWilt": 3240,
      "ĠSic": 3241,
      "Ġstab": 3242,
      "Ġstop": 3243,
      "Ġstoop": 3244,
      "ĠLo": 3245,
      "ĠLove": 3246,
      "idings": 3247,
      "ENBURY": 3248,
      "ract": 3249,
      "Ġdoor": 3250,
      "Ġnose": 3251,
      "ĠDost": 3252,
      "arden": 3253,
      "Ġspe": 3254,
      "Ġspake": 3255,
      "Ġspring": 3256,
      "ilia": 3257,
      "Ġnecess": 3258,
      "Ġknave": 3259,
      "Ġproof": 3260,
      "Ġsheep": 3261,
      "Ġblest": 3262,
      "ement": 3263,
      "Ġsirrah": 3264,
      "Ġtherein": 3265,
      "AND": 3266,
      "cians": 3267,
      "ĠJove": 3268,
      "Ġdisg": 3269,
      "Ġalways": 3270,
      "ursed": 3271,
      "Ġleaves": 3272,
      "Ġtwice": 3273,
      "aper": 3274,
      "Ġprevent": 3275,
      "Ġprevail": 3276,
      "Ġperceive": 3277,
      "Ġrepent": 3278,
      "ĠStanley": 3279,
      "ĠBRAK": 3280,
      "Ġtraitors": 3281,
      "twixt": 3282,
      "Ġimport": 3283,
      "Ġundert": 3284,
      "Ġwrongs": 3285,
      "Ġburied": 3286,
      "ealous": 3287,
      "Ġreasons": 3288,
      "Ġsenate": 3289,
      "Ġgreen": 3290,
      "Ġchoice": 3291,
      "azed": 3292,
      "Ġsilence": 3293,
      "Ġjoint": 3294,
      "Ġdivine": 3295,
      "ĠPrince": 3296,
      "Ġwhilst": 3297,
      "Ġaffair": 3298,
      "Ġtyran": 3299,
      "ĠBesides": 3300,
      "Ġembrace": 3301,
      "ĠArt": 3302,
      "ĠDeath": 3303,
      "Ġcreature": 3304,
      "Ġsacred": 3305,
      "Ġoccasion": 3306,
      "Ġinnocent": 3307,
      "ĠBrother": 3308,
      "ĠCaius": 3309,
      "Ġfiery": 3310,
      "ĠMistress": 3311,
      "Ġleng": 3312,
      "Ġsafety": 3313,
      "ĠFriar": 3314,
      "ĠVerona": 3315,
      "Ġremedy": 3316,
      "Ġcirc": 3317,
      "ĠTHOMAS": 3318,
      "ĠBRAKENBURY": 3319,
      "?'": 3320,
      "GOR": 3321,
      "RESS": 3322,
      "VERD": 3323,
      "ault": 3324,
      "eld": 3325,
      "jo": 3326,
      "loy": 3327,
      "mn": 3328,
      "nat": 3329,
      "oly": 3330,
      "oard": 3331,
      "pin": 3332,
      "sp": 3333,
      "shi": 3334,
      "sic": 3335,
      "Ġes": 3336,
      "Ġed": 3337,
      "Ġtast": 3338,
      "Ġavo": 3339,
      "Ġship": 3340,
      "Ġsits": 3341,
      "Ġwent": 3342,
      "Ġwings": 3343,
      "inous": 3344,
      "Ġbark": 3345,
      "orry": 3346,
      "Ġfury": 3347,
      "itol": 3348,
      "itted": 3349,
      "Ġdri": 3350,
      "Ġcre": 3351,
      "Ġlar": 3352,
      "enius": 3353,
      "ĠTurn": 3354,
      "ĠAE": 3355,
      "ĠApo": 3356,
      "anch": 3357,
      "omp": 3358,
      "Ġgarden": 3359,
      "Ġbelly": 3360,
      "Ġinform": 3361,
      "edious": 3362,
      "ĠSomer": 3363,
      "Ġused": 3364,
      "Ġweeds": 3365,
      "Ġele": 3366,
      "Ġeag": 3367,
      "Ġemp": 3368,
      "ĠOVERD": 3369,
      "Ġstones": 3370,
      "Ġrenown": 3371,
      "Ġdec": 3372,
      "Ġdeceived": 3373,
      "Ġshar": 3374,
      "ĠDER": 3375,
      "Ġallow": 3376,
      "Ġanger": 3377,
      "Ġloath": 3378,
      "Ġloyal": 3379,
      "ardine": 3380,
      "hant": 3381,
      "Ġfares": 3382,
      "Ġknight": 3383,
      "ctise": 3384,
      "Ġshr": 3385,
      "Ġshri": 3386,
      "othing": 3387,
      "Ġoracle": 3388,
      "ĠMyself": 3389,
      "Ġmayor": 3390,
      "hysic": 3391,
      "elve": 3392,
      "Ġhollow": 3393,
      "Ġsail": 3394,
      "Ġplot": 3395,
      "Ġplague": 3396,
      "ONE": 3397,
      "Ġfright": 3398,
      "unning": 3399,
      "ĠWithout": 3400,
      "Ġround": 3401,
      "Ġrob": 3402,
      "Ġrock": 3403,
      "Ġwherein": 3404,
      "Ġdesign": 3405,
      "ĠWherein": 3406,
      "aughters": 3407,
      "STRESS": 3408,
      "Ġadieu": 3409,
      "Ġcommend": 3410,
      "Ġprayer": 3411,
      "Ġclaim": 3412,
      "Ġplead": 3413,
      "Ġtroth": 3414,
      "aced": 3415,
      "Ġrude": 3416,
      "Ġsmile": 3417,
      "Ġtreacher": 3418,
      "Ġimprison": 3419,
      "Ġcares": 3420,
      "ĠGREGOR": 3421,
      "Ġmaids": 3422,
      "Ġdrawn": 3423,
      "Ġwanton": 3424,
      "Ġassist": 3425,
      "unts": 3426,
      "Ġtempt": 3427,
      "Ġcondu": 3428,
      "Ġdeserve": 3429,
      "ĠMISTRESS": 3430,
      "ĠHaving": 3431,
      "Ġprofess": 3432,
      "Ġdelight": 3433,
      "Ġdespite": 3434,
      "ĠPrithee": 3435,
      "ĠCapitol": 3436,
      "Ġpractise": 3437,
      "Ġcheek": 3438,
      "Ġabsence": 3439,
      "Ġdrop": 3440,
      "Ġbroken": 3441,
      "Ġviolent": 3442,
      "Ġutter": 3443,
      "Ġtrumpets": 3444,
      "ĠMenenius": 3445,
      "Ġempt": 3446,
      "Ġignorant": 3447,
      "Ġlangu": 3448,
      "Ġrotten": 3449,
      "ĠBarnardine": 3450,
      "Ġcountenance": 3451,
      "ĠIndeed": 3452,
      "ĠSomerset": 3453,
      "ĠOVERDONE": 3454,
      "ĠDERBY": 3455,
      "ĠGREGORY": 3456,
      "FORD": 3457,
      "MON": 3458,
      "XFORD": 3459,
      "act": 3460,
      "cha": 3461,
      "draw": 3462,
      "eous": 3463,
      "mion": 3464,
      "pet": 3465,
      "Ġtune": 3466,
      "Ġtidings": 3467,
      "Ġtedious": 3468,
      "held": 3469,
      "Ġaim": 3470,
      "Ġaught": 3471,
      "Ġsix": 3472,
      "Ġsens": 3473,
      "Ġmotion": 3474,
      "Ġwont": 3475,
      "Ġwives": 3476,
      "rehe": 3477,
      "haps": 3478,
      "Ġball": 3479,
      "isa": 3480,
      "ises": 3481,
      "onounce": 3482,
      "Ġdet": 3483,
      "Ġdur": 3484,
      "Ġdue": 3485,
      "Ġcell": 3486,
      "Ġcries": 3487,
      "Ġnine": 3488,
      "Ġnumber": 3489,
      "Ġnames": 3490,
      "Ġloud": 3491,
      "esy": 3492,
      "Ġthrust": 3493,
      "Ġhit": 3494,
      "Ġhid": 3495,
      "Ġpin": 3496,
      "Ġpil": 3497,
      "Ġpair": 3498,
      "Ġpawn": 3499,
      "othe": 3500,
      "Ġgain": 3501,
      "semb": 3502,
      "Ġinfect": 3503,
      "cend": 3504,
      "utes": 3505,
      "iment": 3506,
      "ĠSha": 3507,
      "ĠSOM": 3508,
      "ĠCousin": 3509,
      "rious": 3510,
      "ĠOXFORD": 3511,
      "Ġstar": 3512,
      "Ġstat": 3513,
      "Ġsteed": 3514,
      "Ġstock": 3515,
      "Ġstuff": 3516,
      "ĠLea": 3517,
      "ĠGreat": 3518,
      "Ġreceive": 3519,
      "rand": 3520,
      "ashi": 3521,
      "ĠPre": 3522,
      "ĠPol": 3523,
      "ĠPisa": 3524,
      "Ġasleep": 3525,
      "Ġdew": 3526,
      "Ġdeare": 3527,
      "Ġdeposed": 3528,
      "Ġones": 3529,
      "ĠRes": 3530,
      "ĠThree": 3531,
      "ĠThurs": 3532,
      "ards": 3533,
      "ĠKnow": 3534,
      "Ġvantage": 3535,
      "ERIA": 3536,
      "Ġamb": 3537,
      "ĠVAL": 3538,
      "ongs": 3539,
      "Ġjealous": 3540,
      "Ġshouldst": 3541,
      "Ġproper": 3542,
      "Ġenvious": 3543,
      "Ġoutward": 3544,
      "ĠRICHMON": 3545,
      "Ġwhole": 3546,
      "Ġoffend": 3547,
      "Ġalas": 3548,
      "Ġheav": 3549,
      "Ġexcell": 3550,
      "Ġearn": 3551,
      "eeth": 3552,
      "ĠMark": 3553,
      "Ġmeaning": 3554,
      "Ġchief": 3555,
      "Ġbegins": 3556,
      "Ġruin": 3557,
      "ission": 3558,
      "Ġresign": 3559,
      "Ġtread": 3560,
      "ethought": 3561,
      "Ġbanished": 3562,
      "Ġpassing": 3563,
      "Ġpleased": 3564,
      "Ġwoful": 3565,
      "Ġdevise": 3566,
      "Ġfollowers": 3567,
      "Ġfools": 3568,
      "ĠHermion": 3569,
      "Ġadvise": 3570,
      "Ġpersu": 3571,
      "Ġhanging": 3572,
      "Ġgives": 3573,
      "Ġrememb": 3574,
      "Ġawake": 3575,
      "Ġborne": 3576,
      "Ġsupper": 3577,
      "Ġcarry": 3578,
      "Ġlamb": 3579,
      "aze": 3580,
      "ĠRivers": 3581,
      "Ġdisposition": 3582,
      "Ġbecomes": 3583,
      "Ġpossible": 3584,
      "ERSET": 3585,
      "Ġburthen": 3586,
      "Ġgarments": 3587,
      "Ġcastle": 3588,
      "Ġexpress": 3589,
      "change": 3590,
      "Ġsighs": 3591,
      "Ġthrive": 3592,
      "Ġundone": 3593,
      "Ġdreadful": 3594,
      "Ġbabe": 3595,
      "Ġcolour": 3596,
      "Ġprotect": 3597,
      "Ġpubl": 3598,
      "Ġprepared": 3599,
      "ĠChristian": 3600,
      "ĠGrey": 3601,
      "Ġdamned": 3602,
      "Ġnobles": 3603,
      "ĠInto": 3604,
      "Ġstorm": 3605,
      "Ġfatal": 3606,
      "Ġauthority": 3607,
      "Ġfollows": 3608,
      "Ġsimple": 3609,
      "Ġfarther": 3610,
      "Ġthroat": 3611,
      "ĠMusician": 3612,
      "Ġbenefit": 3613,
      "Ġaffairs": 3614,
      "pinion": 3615,
      "ĠApollo": 3616,
      "ĠSOMERSET": 3617,
      "ĠThursday": 3618,
      "ĠVALERIA": 3619,
      "ĠRICHMOND": 3620,
      "ĠHermione": 3621,
      "BH": 3622,
      "HY": 3623,
      "LIUS": 3624,
      "SA": 3625,
      "after": 3626,
      "cing": 3627,
      "eg": 3628,
      "go": 3629,
      "gle": 3630,
      "iond": 3631,
      "ron": 3632,
      "thi": 3633,
      "ub": 3634,
      "yard": 3635,
      "yond": 3636,
      "Ġer": 3637,
      "Ġir": 3638,
      "Ġtort": 3639,
      "Ġteeth": 3640,
      "Ġsan": 3641,
      "Ġsorry": 3642,
      "Ġmurderer": 3643,
      "Ġmourn": 3644,
      "Ġwine": 3645,
      "Ġwander": 3646,
      "Ġband": 3647,
      "Ġbond": 3648,
      "erved": 3649,
      "itude": 3650,
      "Ġdaughters": 3651,
      "Ġcal": 3652,
      "Ġcam": 3653,
      "Ġcens": 3654,
      "Ġcunning": 3655,
      "Ġlend": 3656,
      "ene": 3657,
      "enn": 3658,
      "arch": 3659,
      "Ġtop": 3660,
      "Ġpaper": 3661,
      "Ġphysic": 3662,
      "ĠTailor": 3663,
      "ĠABH": 3664,
      "Ġgage": 3665,
      "atsw": 3666,
      "Ġbew": 3667,
      "Ġbelike": 3668,
      "Ġbeheld": 3669,
      "ldom": 3670,
      "eding": 3671,
      "utation": 3672,
      "ĠBUS": 3673,
      "ĠBoy": 3674,
      "ĠBona": 3675,
      "ĠBiond": 3676,
      "ĠHas": 3677,
      "ĠMAMIL": 3678,
      "ĠMOW": 3679,
      "ĠMOP": 3680,
      "Ġweight": 3681,
      "Ġweap": 3682,
      "ills": 3683,
      "illing": 3684,
      "Ġequ": 3685,
      "enture": 3686,
      "rib": 3687,
      "Ġstore": 3688,
      "Ġstep": 3689,
      "ords": 3690,
      "Ġlip": 3691,
      "room": 3692,
      "usion": 3693,
      "Ġseas": 3694,
      "iffe": 3695,
      "Ġsup": 3696,
      "run": 3697,
      "Ġange": 3698,
      "Ġlod": 3699,
      "Ġspend": 3700,
      "Ġspare": 3701,
      "ello": 3702,
      "ellow": 3703,
      "hop": 3704,
      "Ġvan": 3705,
      "ORSON": 3706,
      "ouses": 3707,
      "Ġshut": 3708,
      "ETER": 3709,
      "Ġgoodness": 3710,
      "Ġconj": 3711,
      "ĠVery": 3712,
      "ĠHelp": 3713,
      "Ġsway": 3714,
      "Ġbrook": 3715,
      "Ġkingly": 3716,
      "Ġunnat": 3717,
      "ortion": 3718,
      "Ġquit": 3719,
      "imely": 3720,
      "Ġdisd": 3721,
      "Ġexile": 3722,
      "Ġroom": 3723,
      "Ġdesert": 3724,
      "Ġgentlewoman": 3725,
      "Ġflight": 3726,
      "Ġtwelve": 3727,
      "Ġaffect": 3728,
      "Ġparts": 3729,
      "Ġpartic": 3730,
      "Ġrash": 3731,
      "Ġadm": 3732,
      "Ġprey": 3733,
      "Ġperil": 3734,
      "Ġperish": 3735,
      "Ġperfect": 3736,
      "Ġwrath": 3737,
      "Ġtrans": 3738,
      "Ġwhither": 3739,
      "iteous": 3740,
      "Ġuntil": 3741,
      "loved": 3742,
      "Ġintend": 3743,
      "Ġlean": 3744,
      "Ġlegs": 3745,
      "orses": 3746,
      "ĠStill": 3747,
      "Ġkeeps": 3748,
      "Ġaccess": 3749,
      "Ġaccus": 3750,
      "Ġaccuse": 3751,
      "Ġprize": 3752,
      "Ġchair": 3753,
      "ixenes": 3754,
      "Ġcourtesy": 3755,
      "Ġhumbly": 3756,
      "ounty": 3757,
      "Ġadvantage": 3758,
      "Ġcurst": 3759,
      "Ġcrack": 3760,
      "Ġspirits": 3761,
      "Ġdenied": 3762,
      "Ġdrum": 3763,
      "ancy": 3764,
      "Ġsilver": 3765,
      "Ġbetwixt": 3766,
      "place": 3767,
      "Ġdelay": 3768,
      "Ġresolve": 3769,
      "Ġresolved": 3770,
      "Ġcorrupt": 3771,
      "Ġaccept": 3772,
      "Ġwedding": 3773,
      "Ġpenit": 3774,
      "Ġhurt": 3775,
      "Ġprotest": 3776,
      "Ġclear": 3777,
      "Ġowe": 3778,
      "Ġforsworn": 3779,
      "Ġshadow": 3780,
      "ĠOfficer": 3781,
      "Ġpleasant": 3782,
      "ĠBelieve": 3783,
      "Ġsolemn": 3784,
      "Ġcontinue": 3785,
      "Ġpetition": 3786,
      "Ġthreaten": 3787,
      "Ġconquer": 3788,
      "Ġpunish": 3789,
      "Ġseveral": 3790,
      "Ġcontrary": 3791,
      "Ġpalace": 3792,
      "ĠEXETER": 3793,
      "Ġneighbour": 3794,
      "Ġdinner": 3795,
      "Ġmiserable": 3796,
      "BRAY": 3797,
      "Ġspeci": 3798,
      "Ġcircum": 3799,
      "Ġtaste": 3800,
      "Ġempty": 3801,
      "ĠLeave": 3802,
      "ĠPolixenes": 3803,
      "Ġsanct": 3804,
      "ĠABHORSON": 3805,
      "atswain": 3806,
      "ĠBUSHY": 3807,
      "ĠBiondello": 3808,
      "ĠMAMILLIUS": 3809,
      "ĠMOWBRAY": 3810,
      "ĠMOPSA": 3811,
      "CH": 3812,
      "RCH": 3813,
      "af": 3814,
      "aff": 3815,
      "clock": 3816,
      "dy": 3817,
      "mity": 3818,
      "oot": 3819,
      "oke": 3820,
      "ping": 3821,
      "pic": 3822,
      "rt": 3823,
      "sing": 3824,
      "tune": 3825,
      "ung": 3826,
      "urious": 3827,
      "Ġtut": 3828,
      "Ġtable": 3829,
      "hearted": 3830,
      "Ġscept": 3831,
      "Ġmiss": 3832,
      "Ġmaking": 3833,
      "Ġwot": 3834,
      "Ġwood": 3835,
      "Ġwol": 3836,
      "Ġwond": 3837,
      "rease": 3838,
      "Ġbot": 3839,
      "Ġbas": 3840,
      "Ġbare": 3841,
      "Ġbud": 3842,
      "ising": 3843,
      "Ġfle": 3844,
      "Ġfro": 3845,
      "Ġfee": 3846,
      "Ġfashi": 3847,
      "erve": 3848,
      "Ġdi": 3849,
      "Ġdign": 3850,
      "Ġdies": 3851,
      "Ġdag": 3852,
      "Ġcup": 3853,
      "Ġcalm": 3854,
      "Ġnaked": 3855,
      "Ġyonder": 3856,
      "ency": 3857,
      "aries": 3858,
      "Ġhunt": 3859,
      "Ġhorses": 3860,
      "Ġopinion": 3861,
      "Ġtomb": 3862,
      "Ġpi": 3863,
      "Ġpure": 3864,
      "Ġpainted": 3865,
      "Ġpiteous": 3866,
      "ĠARCH": 3867,
      "Ġheed": 3868,
      "ote": 3869,
      "ane": 3870,
      "Ġgate": 3871,
      "Ġbeyond": 3872,
      "Ġbeloved": 3873,
      "sequ": 3874,
      "irg": 3875,
      "uted": 3876,
      "ĠBear": 3877,
      "ĠBAL": 3878,
      "ĠBISHOP": 3879,
      "Ġmend": 3880,
      "ĠMight": 3881,
      "ĠCo": 3882,
      "Ġweigh": 3883,
      "ourish": 3884,
      "Ġstory": 3885,
      "ĠFather": 3886,
      "ĠFrench": 3887,
      "Ġreward": 3888,
      "ĠPERC": 3889,
      "urance": 3890,
      "Ġdebt": 3891,
      "ĠRight": 3892,
      "ĠRep": 3893,
      "ĠNone": 3894,
      "ĠNap": 3895,
      "ĠNothing": 3896,
      "amed": 3897,
      "Ġsep": 3898,
      "Ġseest": 3899,
      "Ġfail": 3900,
      "Ġfaces": 3901,
      "que": 3902,
      "Ġcomb": 3903,
      "Ġcomple": 3904,
      "Ġpronounce": 3905,
      "Ġamen": 3906,
      "outs": 3907,
      "oler": 3908,
      "Ġhatred": 3909,
      "Ġswallow": 3910,
      "Ġhereafter": 3911,
      "Ġtheirs": 3912,
      "pping": 3913,
      "Ġarg": 3914,
      "igence": 3915,
      "Ġquench": 3916,
      "Ġhopes": 3917,
      "Ġseeing": 3918,
      "cio": 3919,
      "cian": 3920,
      "umble": 3921,
      "Ġdiss": 3922,
      "Ġexpect": 3923,
      "Ġfolly": 3924,
      "Ġrose": 3925,
      "Ġlooking": 3926,
      "ustice": 3927,
      "Ġslow": 3928,
      "Ġfairly": 3929,
      "Ġcalled": 3930,
      "Ġado": 3931,
      "Ġclo": 3932,
      "Ġperpet": 3933,
      "Ġways": 3934,
      "THAS": 3935,
      "Ġwhore": 3936,
      "Ġremains": 3937,
      "lesome": 3938,
      "Ġintent": 3939,
      "Ġcrowns": 3940,
      "Ġcourage": 3941,
      "Ġhark": 3942,
      "Ġwits": 3943,
      "Ġends": 3944,
      "Ġendure": 3945,
      "ĠOnly": 3946,
      "Ġtremb": 3947,
      "Ġneedful": 3948,
      "Ġjoys": 3949,
      "Ġjoyful": 3950,
      "Ġservices": 3951,
      "Ġmistake": 3952,
      "Ġfortunes": 3953,
      "Ġbodies": 3954,
      "Ġnatural": 3955,
      "Ġhappiness": 3956,
      "Ġmisery": 3957,
      "Ġchide": 3958,
      "Ġturns": 3959,
      "Ġattempt": 3960,
      "Ġadvance": 3961,
      "Ġcurses": 3962,
      "Ġassurance": 3963,
      "Ġdiscover": 3964,
      "Ġdiscontent": 3965,
      "Ġcommanded": 3966,
      "Ġsenators": 3967,
      "Ġsometime": 3968,
      "Ġsometimes": 3969,
      "Ġdares": 3970,
      "Ġtemper": 3971,
      "Ġwounded": 3972,
      "Ġspoken": 3973,
      "ĠMayor": 3974,
      "Ġmarket": 3975,
      "cape": 3976,
      "Ġwaters": 3977,
      "Ġinstruct": 3978,
      "Ġinstrument": 3979,
      "Ġcursed": 3980,
      "Ġterror": 3981,
      "Ġshortly": 3982,
      "Ġwhiles": 3983,
      "Ġgriev": 3984,
      "ĠBeseech": 3985,
      "Ġduked": 3986,
      "Ġgroan": 3987,
      "Ġcomplain": 3988,
      "Ġcolours": 3989,
      "Ġprinces": 3990,
      "Ġprincess": 3991,
      "ĠTwo": 3992,
      "Ġgovernment": 3993,
      "Ġapparel": 3994,
      "Ġobedience": 3995,
      "Ġcounterfeit": 3996,
      "Ġcredit": 3997,
      "ĠMarshal": 3998,
      "Ġwreck": 3999,
      "Ġundertake": 4000,
      "Ġlarge": 4001,
      "ĠAEd": 4002,
      "Ġemploy": 4003,
      "Ġsharp": 4004,
      "Ġlanguage": 4005,
      "Ġdurst": 4006,
      "Ġexcellent": 4007,
      "Ġremembrance": 4008,
      "Ġpublic": 4009,
      "Ġunnatural": 4010,
      "picion": 4011,
      "ĠBALTHAS": 4012,
      "ĠPERCY": 4013,
      "Ġdukedom": 4014,
      "ĠBALTHASAR": 4015,
      "?--": 4016,
      "CAS": 4017,
      "FOL": 4018,
      "OS": 4019,
      "afe": 4020,
      "bow": 4021,
      "born": 4022,
      "dds": 4023,
      "fer": 4024,
      "gers": 4025,
      "hor": 4026,
      "lar": 4027,
      "lic": 4028,
      "oe": 4029,
      "oved": 4030,
      "same": 4031,
      "uary": 4032,
      "val": 4033,
      "vours": 4034,
      "whe": 4035,
      "what": 4036,
      "wise": 4037,
      "ys": 4038,
      "Ġtest": 4039,
      "Ġtap": 4040,
      "hest": 4041,
      "Ġsink": 4042,
      "Ġsins": 4043,
      "Ġmill": 4044,
      "Ġmag": 4045,
      "Ġmaint": 4046,
      "Ġmile": 4047,
      "ination": 4048,
      "happy": 4049,
      "isper": 4050,
      "ishop": 4051,
      "Ġfame": 4052,
      "ita": 4053,
      "Ġcease": 4054,
      "Ġnought": 4055,
      "Ġled": 4056,
      "ences": 4057,
      "Ġthief": 4058,
      "Ġhost": 4059,
      "Ġhouses": 4060,
      "Ġodd": 4061,
      "Ġodds": 4062,
      "Ġpol": 4063,
      "Ġpowers": 4064,
      "ĠTit": 4065,
      "ĠApp": 4066,
      "ĠAmen": 4067,
      "strous": 4068,
      "Ġgru": 4069,
      "atic": 4070,
      "Ġbeth": 4071,
      "ĠWidow": 4072,
      "ĠWorthy": 4073,
      "Ġhaz": 4074,
      "Ġmere": 4075,
      "Ġmeant": 4076,
      "ĠSet": 4077,
      "Ġisle": 4078,
      "Ġisland": 4079,
      "ĠCal": 4080,
      "Ġweather": 4081,
      "ourage": 4082,
      "Ġeast": 4083,
      "Ġits": 4084,
      "Ġstol": 4085,
      "Ġkin": 4086,
      "ĠLe": 4087,
      "ĠLay": 4088,
      "ĠLong": 4089,
      "ĠFour": 4090,
      "Ġrepe": 4091,
      "Ġrealm": 4092,
      "idence": 4093,
      "ĠPost": 4094,
      "ĠPage": 4095,
      "ĠRet": 4096,
      "ĠRem": 4097,
      "ĠRos": 4098,
      "ĠROS": 4099,
      "Ġshape": 4100,
      "ĠEl": 4101,
      "ĠDear": 4102,
      "ĠDorse": 4103,
      "uses": 4104,
      "Ġseize": 4105,
      "ified": 4106,
      "ĠThose": 4107,
      "Ġspite": 4108,
      "Ġknife": 4109,
      "Ġvirg": 4110,
      "Ġshun": 4111,
      "ants": 4112,
      "arts": 4113,
      "Ġcomest": 4114,
      "Ġmanners": 4115,
      "Ġconc": 4116,
      "ieved": 4117,
      "Ġblock": 4118,
      "Ġblush": 4119,
      "ared": 4120,
      "arent": 4121,
      "olute": 4122,
      "Ġbrings": 4123,
      "Ġung": 4124,
      "Ġworn": 4125,
      "Ġqual": 4126,
      "Ġjourn": 4127,
      "ĠYoung": 4128,
      "akest": 4129,
      "Ġfathers": 4130,
      "ument": 4131,
      "ĠJack": 4132,
      "Ġenmity": 4133,
      "Ġring": 4134,
      "Ġalter": 4135,
      "ĠSold": 4136,
      "Ġrogue": 4137,
      "Ġfriendly": 4138,
      "Ġflies": 4139,
      "ĠMarch": 4140,
      "Ġslay": 4141,
      "tled": 4142,
      "Ġadvers": 4143,
      "Ġwrite": 4144,
      "Ġtrade": 4145,
      "Ġscope": 4146,
      "Ġscene": 4147,
      "Ġcontract": 4148,
      "Ġapprehe": 4149,
      "Ġarmour": 4150,
      "Ġuntimely": 4151,
      "ctions": 4152,
      "ression": 4153,
      "Ġimm": 4154,
      "Ġrepair": 4155,
      "Ġintell": 4156,
      "Ġconsider": 4157,
      "Ġrule": 4158,
      "Ġleads": 4159,
      "Ġtrick": 4160,
      "Ġslept": 4161,
      "Ġaccord": 4162,
      "Ġcompan": 4163,
      "Ġcompass": 4164,
      "Ġpurcha": 4165,
      "Ġcock": 4166,
      "Ġbrain": 4167,
      "Ġseeming": 4168,
      "Ġimposs": 4169,
      "Ġglorious": 4170,
      "Ġpassion": 4171,
      "Ġpassage": 4172,
      "Ġmaiden": 4173,
      "Ġhateful": 4174,
      "Ġstrew": 4175,
      "Ġinstant": 4176,
      "uteous": 4177,
      "Ġserves": 4178,
      "Ġboar": 4179,
      "Ġwants": 4180,
      "ĠGentlemen": 4181,
      "ĠNORFOL": 4182,
      "Ġwinds": 4183,
      "Ġcontented": 4184,
      "Ġfreely": 4185,
      "Ġgrey": 4186,
      "Ġdrums": 4187,
      "Ġmonstrous": 4188,
      "ĠLucio": 4189,
      "Ġcholer": 4190,
      "Ġgrows": 4191,
      "Ġdeserves": 4192,
      "ĠWhither": 4193,
      "Ġgranted": 4194,
      "Ġincrease": 4195,
      "Ġresolution": 4196,
      "noon": 4197,
      "Ġterms": 4198,
      "ĠBoatswain": 4199,
      "Ġvex": 4200,
      "ĠVolsce": 4201,
      "Ġwait": 4202,
      "Ġpraise": 4203,
      "Ġsky": 4204,
      "Ġabsent": 4205,
      "Ġvenom": 4206,
      "Ġdirect": 4207,
      "chance": 4208,
      "Ġdrops": 4209,
      "Ġprivile": 4210,
      "Ġrespected": 4211,
      "Ġframe": 4212,
      "Ġoppos": 4213,
      "Ġapproach": 4214,
      "ĠExeter": 4215,
      "Ġtorment": 4216,
      "Ġunknown": 4217,
      "Ġprosperous": 4218,
      "Ġsuspicion": 4219,
      "Ġreverend": 4220,
      "ĠDORCAS": 4221,
      "Ġcaptain": 4222,
      "Ġdegree": 4223,
      "Ġbehalf": 4224,
      "Ġsmooth": 4225,
      "Ġtreacherous": 4226,
      "Ġearnest": 4227,
      "Ġcamest": 4228,
      "Ġdisdain": 4229,
      "Ġparticular": 4230,
      "Ġsceptre": 4231,
      "Ġdagger": 4232,
      "ĠNaples": 4233,
      "ĠROSS": 4234,
      "ĠDorset": 4235,
      "ĠNORFOLK": 4236,
      "GH": 4237,
      "God": 4238,
      "NS": 4239,
      "RR": 4240,
      "SET": 4241,
      "aily": 4242,
      "fl": 4243,
      "fret": 4244,
      "iven": 4245,
      "iate": 4246,
      "just": 4247,
      "kin": 4248,
      "mend": 4249,
      "ped": 4250,
      "uce": 4251,
      "Ġing": 4252,
      "Ġtame": 4253,
      "Ġtaught": 4254,
      "Ġtide": 4255,
      "Ġable": 4256,
      "Ġsqu": 4257,
      "Ġsouth": 4258,
      "Ġmor": 4259,
      "Ġmessenger": 4260,
      "iny": 4261,
      "rey": 4262,
      "reland": 4263,
      "reme": 4264,
      "Ġbird": 4265,
      "Ġbury": 4266,
      "Ġfig": 4267,
      "Ġfurn": 4268,
      "ĠIreland": 4269,
      "Ġdig": 4270,
      "Ġdress": 4271,
      "Ġdying": 4272,
      "Ġdaily": 4273,
      "Ġchat": 4274,
      "Ġcatch": 4275,
      "Ġlark": 4276,
      "Ġthorn": 4277,
      "Ġthird": 4278,
      "Ġpurse": 4279,
      "Ġparent": 4280,
      "ĠALO": 4281,
      "ances": 4282,
      "omans": 4283,
      "Ġglo": 4284,
      "ature": 4285,
      "atcl": 4286,
      "atience": 4287,
      "Ġbeard": 4288,
      "ĠBer": 4289,
      "ĠBra": 4290,
      "ĠBring": 4291,
      "Ġmelt": 4292,
      "ĠSe": 4293,
      "ĠSon": 4294,
      "ĠSave": 4295,
      "ĠHunts": 4296,
      "ĠMil": 4297,
      "ĠCame": 4298,
      "Ġwept": 4299,
      "Ġwealth": 4300,
      "ades": 4301,
      "ric": 4302,
      "ricians": 4303,
      "Ġstamp": 4304,
      "ĠLau": 4305,
      "ĠFERD": 4306,
      "ĠFroth": 4307,
      "ĠGhost": 4308,
      "Ġrevol": 4309,
      "rain": 4310,
      "raced": 4311,
      "Ġlion": 4312,
      "INAND": 4313,
      "ales": 4314,
      "aline": 4315,
      "ĠRomans": 4316,
      "ĠRatcl": 4317,
      "ĠYe": 4318,
      "Ġwilling": 4319,
      "Ġwillingly": 4320,
      "Ġnobl": 4321,
      "Ġnobly": 4322,
      "ĠDown": 4323,
      "Ġseason": 4324,
      "andal": 4325,
      "Ġsuck": 4326,
      "Ġspr": 4327,
      "Ġspur": 4328,
      "Ġvows": 4329,
      "Ġvault": 4330,
      "Ġconce": 4331,
      "Ġconceit": 4332,
      "Ġamazed": 4333,
      "ember": 4334,
      "Ġswell": 4335,
      "Ġlovely": 4336,
      "Ġunless": 4337,
      "Ġworthi": 4338,
      "elt": 4339,
      "Ġjew": 4340,
      "Ġmuster": 4341,
      "Ġshoulder": 4342,
      "Ġprovo": 4343,
      "Ġdisper": 4344,
      "Ġens": 4345,
      "Ġenforce": 4346,
      "Ġruth": 4347,
      "Ġalike": 4348,
      "Ġaboard": 4349,
      "Ġabhor": 4350,
      "Ġroar": 4351,
      "Ġtells": 4352,
      "Ġwhereof": 4353,
      "Ġwarlike": 4354,
      "Ġflatt": 4355,
      "Ġfears": 4356,
      "Ġhasty": 4357,
      "Ġgreatest": 4358,
      "Ġrap": 4359,
      "Ġraise": 4360,
      "Ġrascal": 4361,
      "Ġadver": 4362,
      "Ġcommitted": 4363,
      "Ġcommission": 4364,
      "Ġclam": 4365,
      "Ġperj": 4366,
      "Ġperforce": 4367,
      "Ġwrought": 4368,
      "Ġpress": 4369,
      "Ġbearing": 4370,
      "Ġnorth": 4371,
      "liament": 4372,
      "Ġwhisper": 4373,
      "ĠThanks": 4374,
      "Ġbegun": 4375,
      "Ġpeers": 4376,
      "ĠStri": 4377,
      "Ġwitch": 4378,
      "Ġaccused": 4379,
      "Ġputs": 4380,
      "Ġkindly": 4381,
      "Ġcounty": 4382,
      "Ġsmiles": 4383,
      "Ġfinds": 4384,
      "Ġbraw": 4385,
      "Ġcharged": 4386,
      "Ġafternoon": 4387,
      "Ġholds": 4388,
      "ĠGREEN": 4389,
      "Ġstreets": 4390,
      "Ġsoundly": 4391,
      "Ġbuild": 4392,
      "Ġadvice": 4393,
      "Ġboots": 4394,
      "Ġcurrent": 4395,
      "Ġsends": 4396,
      "Ġhanged": 4397,
      "Ġrevenged": 4398,
      "Ġassured": 4399,
      "Ġgiving": 4400,
      "Ġdarest": 4401,
      "ĠSupp": 4402,
      "Ġsupposed": 4403,
      "ĠPlay": 4404,
      "Ġrecom": 4405,
      "Ġrecord": 4406,
      "Ġsilent": 4407,
      "Ġinstruments": 4408,
      "Ġhardly": 4409,
      "Ġprofit": 4410,
      "Ġparliament": 4411,
      "Ġveins": 4412,
      "Ġsingle": 4413,
      "Ġwaste": 4414,
      "Ġaffli": 4415,
      "Ġpieces": 4416,
      "Ġgarland": 4417,
      "ĠPomfret": 4418,
      "ĠUntil": 4419,
      "Ġgrieve": 4420,
      "Ġforbear": 4421,
      "Ġgroans": 4422,
      "Ġestate": 4423,
      "Ġthrice": 4424,
      "ĠAbout": 4425,
      "erns": 4426,
      "Ġrebell": 4427,
      "ĠTYRR": 4428,
      "Ġdestroy": 4429,
      "Ġurged": 4430,
      "Ġaffections": 4431,
      "Ġfamous": 4432,
      "Ġhaply": 4433,
      "Ġlusty": 4434,
      "ĠDORSET": 4435,
      "ĠConspir": 4436,
      "Ġelder": 4437,
      "Ġstudy": 4438,
      "Ġconstant": 4439,
      "Ġgently": 4440,
      "Ġarrived": 4441,
      "ĠSicilia": 4442,
      "Ġavoid": 4443,
      "Ġimprisonment": 4444,
      "Ġconduct": 4445,
      "Ġprotector": 4446,
      "Ġspecial": 4447,
      "Ġcircumst": 4448,
      "Ġsanctuary": 4449,
      "Ġperpetual": 4450,
      "Ġgrievous": 4451,
      "ĠAEdile": 4452,
      "Ġmaintain": 4453,
      "ĠTitus": 4454,
      "Ġbethink": 4455,
      "ĠRosaline": 4456,
      "Ġvirgin": 4457,
      "Ġjourney": 4458,
      "ĠSoldier": 4459,
      "NSO": 4460,
      "ĠALONSO": 4461,
      "ĠHuntsman": 4462,
      "ĠFERDINAND": 4463,
      "ĠRatcliff": 4464,
      "ĠTYRREL": 4465,
      ";--": 4466,
      "Th": 4467,
      "aly": 4468,
      "aces": 4469,
      "con": 4470,
      "dig": 4471,
      "eat": 4472,
      "erer": 4473,
      "father": 4474,
      "fall": 4475,
      "faced": 4476,
      "gl": 4477,
      "gar": 4478,
      "grim": 4479,
      "groom": 4480,
      "ib": 4481,
      "ipp": 4482,
      "ipe": 4483,
      "iving": 4484,
      "ienn": 4485,
      "ker": 4486,
      "law": 4487,
      "lanch": 4488,
      "more": 4489,
      "mory": 4490,
      "nal": 4491,
      "pr": 4492,
      "pass": 4493,
      "rrel": 4494,
      "ser": 4495,
      "time": 4496,
      "ties": 4497,
      "uing": 4498,
      "uch": 4499,
      "upt": 4500,
      "vior": 4501,
      "zz": 4502,
      "Ġz": 4503,
      "Ġtall": 4504,
      "Ġtarry": 4505,
      "Ġtask": 4506,
      "Ġach": 4507,
      "Ġapt": 4508,
      "Ġaunt": 4509,
      "Ġsy": 4510,
      "Ġsal": 4511,
      "Ġsire": 4512,
      "Ġsalt": 4513,
      "Ġsnow": 4514,
      "Ġmir": 4515,
      "Ġmult": 4516,
      "Ġwing": 4517,
      "Ġwide": 4518,
      "Ġwhip": 4519,
      "Ġwaking": 4520,
      "Ġbade": 4521,
      "isbury": 4522,
      "Ġfi": 4523,
      "Ġfood": 4524,
      "Ġfrow": 4525,
      "Ġfun": 4526,
      "Ġfeet": 4527,
      "Ġfires": 4528,
      "Ġfancy": 4529,
      "erity": 4530,
      "erby": 4531,
      "llen": 4532,
      "itation": 4533,
      "onci": 4534,
      "Ġdow": 4535,
      "Ġdim": 4536,
      "Ġdiffe": 4537,
      "Ġcat": 4538,
      "Ġcher": 4539,
      "Ġcaught": 4540,
      "Ġcere": 4541,
      "Ġnail": 4542,
      "Ġlin": 4543,
      "Ġlent": 4544,
      "Ġyond": 4545,
      "Ġyoke": 4546,
      "esar": 4547,
      "essel": 4548,
      "enant": 4549,
      "Ġhor": 4550,
      "Ġhie": 4551,
      "Ġhorn": 4552,
      "Ġoak": 4553,
      "Ġpot": 4554,
      "Ġport": 4555,
      "Ġpound": 4556,
      "Ġpier": 4557,
      "ĠTar": 4558,
      "ĠAcc": 4559,
      "vet": 4560,
      "omen": 4561,
      "ative": 4562,
      "semble": 4563,
      "Ġinqu": 4564,
      "Ġhabit": 4565,
      "etite": 4566,
      "eder": 4567,
      "utenant": 4568,
      "ĠBen": 4569,
      "ĠBus": 4570,
      "Ġmelanch": 4571,
      "ĠSm": 4572,
      "ĠSal": 4573,
      "ĠSix": 4574,
      "ĠHo": 4575,
      "ĠMin": 4576,
      "ĠMakes": 4577,
      "Ġfors": 4578,
      "Ġforced": 4579,
      "Ġforfeit": 4580,
      "ĠCond": 4581,
      "ourse": 4582,
      "Ġevent": 4583,
      "aded": 4584,
      "rif": 4585,
      "Ġsting": 4586,
      "Ġstro": 4587,
      "Ġstout": 4588,
      "Ġstret": 4589,
      "Ġstroke": 4590,
      "ĠFo": 4591,
      "Ġrece": 4592,
      "Ġreck": 4593,
      "Ġrede": 4594,
      "Ġrejo": 4595,
      "rac": 4596,
      "Ġsore": 4597,
      "Ġsooth": 4598,
      "Ġdeceit": 4599,
      "ĠRather": 4600,
      "roll": 4601,
      "ested": 4602,
      "ams": 4603,
      "aming": 4604,
      "ĠDare": 4605,
      "ĠDraw": 4606,
      "ĠDerby": 4607,
      "Ġsell": 4608,
      "Ġsees": 4609,
      "Ġalliance": 4610,
      "Ġsue": 4611,
      "ruction": 4612,
      "Ġsple": 4613,
      "Ġknaves": 4614,
      "Ġvill": 4615,
      "Ġvessel": 4616,
      "ulf": 4617,
      "ulate": 4618,
      "nty": 4619,
      "Ġmanif": 4620,
      "Ġconfe": 4621,
      "icy": 4622,
      "ĠVienn": 4623,
      "Ġblunt": 4624,
      "Ġsaying": 4625,
      "Ġune": 4626,
      "Ġunst": 4627,
      "Ġunhappy": 4628,
      "Ġunjust": 4629,
      "ignty": 4630,
      "orted": 4631,
      "LIS": 4632,
      "Ġgraves": 4633,
      "Ġdisple": 4634,
      "Ġwholesome": 4635,
      "Ġoffended": 4636,
      "Ġalack": 4637,
      "Ġalthough": 4638,
      "harge": 4639,
      "Ġabide": 4640,
      "Ġexerc": 4641,
      "Ġexchange": 4642,
      "ĠNoble": 4643,
      "ages": 4644,
      "Ġdesires": 4645,
      "Ġdescend": 4646,
      "Ġflood": 4647,
      "ĠMarian": 4648,
      "Ġslaves": 4649,
      "Ġtwain": 4650,
      "Ġbetray": 4651,
      "Ġbetimes": 4652,
      "Ġnewly": 4653,
      "Ġparting": 4654,
      "Ġpartly": 4655,
      "Ġrare": 4656,
      "Ġraised": 4657,
      "Ġadmit": 4658,
      "Ġcommons": 4659,
      "Ġstanding": 4660,
      "Ġclim": 4661,
      "Ġwrink": 4662,
      "ullus": 4663,
      "Ġcontempt": 4664,
      "Ġappeal": 4665,
      "Ġappetite": 4666,
      "Ġbegu": 4667,
      "Ġimage": 4668,
      "Ġrust": 4669,
      "Ġruled": 4670,
      "Ġhousehold": 4671,
      "Ġsets": 4672,
      "ĠProceed": 4673,
      "osing": 4674,
      "Ġresist": 4675,
      "forth": 4676,
      "forced": 4677,
      "Ġaccident": 4678,
      "Ġprick": 4679,
      "Ġpowerful": 4680,
      "Ġchase": 4681,
      "Ġcharac": 4682,
      "clam": 4683,
      "Ġsmell": 4684,
      "Ġtreasure": 4685,
      "Ġtremble": 4686,
      "Ġbrace": 4687,
      "Ġhelm": 4688,
      "Ġmistrust": 4689,
      "iety": 4690,
      "Ġbesides": 4691,
      "Ġnative": 4692,
      "Ġboys": 4693,
      "Ġdevotion": 4694,
      "Ġpatricians": 4695,
      "Ġweeps": 4696,
      "Ġbelow": 4697,
      "Ġfalsehood": 4698,
      "Ġsovereignty": 4699,
      "Ġvirtues": 4700,
      "ouchs": 4701,
      "ĠTyrrel": 4702,
      "Ġassure": 4703,
      "Ġsecure": 4704,
      "Ġmerit": 4705,
      "Ġoaths": 4706,
      "Ġfaithful": 4707,
      "ĠCannot": 4708,
      "Ġdefence": 4709,
      "Ġsurely": 4710,
      "Ġreconci": 4711,
      "Ġpoints": 4712,
      "Ġfeeling": 4713,
      "Ġbeholding": 4714,
      "Twere": 4715,
      "Ġago": 4716,
      "Ġagree": 4717,
      "Ġcorre": 4718,
      "Ġprett": 4719,
      "Ġbreathed": 4720,
      "Ġsickness": 4721,
      "Ġforgive": 4722,
      "Ġweakness": 4723,
      "Ġregal": 4724,
      "Ġregard": 4725,
      "Ġmouths": 4726,
      "Ġbooks": 4727,
      "Ġbarren": 4728,
      "Ġbridegroom": 4729,
      "Ġcomplaint": 4730,
      "soever": 4731,
      "Ġpitch": 4732,
      "Ġbeasts": 4733,
      "ĠConf": 4734,
      "ĠCaesar": 4735,
      "Ġtrumpet": 4736,
      "eeming": 4737,
      "Ġshield": 4738,
      "Ġforswear": 4739,
      "Ġunkind": 4740,
      "ĠAnti": 4741,
      "Ġapparent": 4742,
      "Ġtempest": 4743,
      "Ġsuspect": 4744,
      "Ġstopp": 4745,
      "Ġreverence": 4746,
      "Ġentertainment": 4747,
      "Ġobedient": 4748,
      "Ġdetermined": 4749,
      "Ġfairer": 4750,
      "Ġfairest": 4751,
      "Ġsubstit": 4752,
      "Ġholp": 4753,
      "Ġstabb": 4754,
      "Ġdisgrace": 4755,
      "Ġtyranny": 4756,
      "Ġlength": 4757,
      "shire": 4758,
      "Ġrenowned": 4759,
      "Ġballad": 4760,
      "Ġpilgrim": 4761,
      "Ġequal": 4762,
      "Ġpenitent": 4763,
      "Ġfashion": 4764,
      "Ġdignity": 4765,
      "Ġcomplex": 4766,
      "ĠFourth": 4767,
      "Ġaccording": 4768,
      "Ġimpossible": 4769,
      "ĠMilan": 4770,
      "Ġrebellion": 4771,
      "Ġfroward": 4772,
      "Ġmelancholy": 4773,
      "ĠSalisbury": 4774,
      "Ġredeem": 4775,
      "Ġconference": 4776,
      "ĠVienna": 4777,
      ".--": 4778,
      "Ay": 4779,
      "DR": 4780,
      "EOM": 4781,
      "IT": 4782,
      "UGH": 4783,
      "bear": 4784,
      "bod": 4785,
      "bation": 4786,
      "com": 4787,
      "cate": 4788,
      "cary": 4789,
      "cceed": 4790,
      "dita": 4791,
      "eve": 4792,
      "fold": 4793,
      "gn": 4794,
      "iam": 4795,
      "long": 4796,
      "mong": 4797,
      "maid": 4798,
      "ns": 4799,
      "nes": 4800,
      "rs": 4801,
      "rat": 4802,
      "rough": 4803,
      "tic": 4804,
      "teen": 4805,
      "tles": 4806,
      "uit": 4807,
      "uries": 4808,
      "wife": 4809,
      "weal": 4810,
      "xe": 4811,
      "Ġtim": 4812,
      "Ġtres": 4813,
      "Ġtakes": 4814,
      "Ġtail": 4815,
      "Ġtaunt": 4816,
      "Ġaxe": 4817,
      "Ġmood": 4818,
      "Ġmess": 4819,
      "Ġmirth": 4820,
      "Ġwid": 4821,
      "Ġwest": 4822,
      "Ġwake": 4823,
      "Ġwink": 4824,
      "Ġwakes": 4825,
      "inct": 4826,
      "Ġbon": 4827,
      "Ġbir": 4828,
      "Ġbuck": 4829,
      "ories": 4830,
      "Ġfish": 4831,
      "erves": 4832,
      "iter": 4833,
      "itable": 4834,
      "onst": 4835,
      "onation": 4836,
      "Ġcost": 4837,
      "Ġchall": 4838,
      "Ġciv": 4839,
      "Ġnap": 4840,
      "Ġline": 4841,
      "Ġlap": 4842,
      "Ġyes": 4843,
      "Ġthir": 4844,
      "Ġthick": 4845,
      "Ġthread": 4846,
      "Ġope": 4847,
      "Ġtoad": 4848,
      "Ġtoil": 4849,
      "Ġtooth": 4850,
      "Ġped": 4851,
      "Ġpee": 4852,
      "Ġpause": 4853,
      "ĠTime": 4854,
      "ĠTush": 4855,
      "ĠTullus": 4856,
      "ĠAf": 4857,
      "ĠAw": 4858,
      "ĠADR": 4859,
      "othes": 4860,
      "stery": 4861,
      "aning": 4862,
      "omach": 4863,
      "Ġgaze": 4864,
      "ĠWIL": 4865,
      "sell": 4866,
      "Ġmystery": 4867,
      "Ġinfection": 4868,
      "Ġmemory": 4869,
      "imble": 4870,
      "ĠSound": 4871,
      "ĠSomet": 4872,
      "ĠHim": 4873,
      "ĠHail": 4874,
      "ĠMany": 4875,
      "ĠCle": 4876,
      "ĠCur": 4877,
      "ĠCry": 4878,
      "ĠCounty": 4879,
      "illy": 4880,
      "Ġwithdraw": 4881,
      "herit": 4882,
      "Ġste": 4883,
      "Ġstick": 4884,
      "Ġstumble": 4885,
      "ĠLart": 4886,
      "ĠLie": 4887,
      "ĠFRO": 4888,
      "ĠGet": 4889,
      "Ġreap": 4890,
      "Ġlift": 4891,
      "Ġliken": 4892,
      "ases": 4893,
      "Ġdeb": 4894,
      "Ġdeck": 4895,
      "Ġdecl": 4896,
      "ĠRa": 4897,
      "Ġsham": 4898,
      "earer": 4899,
      "ĠEach": 4900,
      "ushes": 4901,
      "Ġseiz": 4902,
      "Ġseldom": 4903,
      "ĠThrough": 4904,
      "Ġsuper": 4905,
      "Ġsuitor": 4906,
      "Ġsullen": 4907,
      "Ġsucceed": 4908,
      "Ġlover": 4909,
      "Ġlovest": 4910,
      "Ġspl": 4911,
      "Ġspy": 4912,
      "Ġspit": 4913,
      "Ġspect": 4914,
      "ĠKn": 4915,
      "Ġfact": 4916,
      "Ġfawn": 4917,
      "Ġnegle": 4918,
      "Ġknot": 4919,
      "Ġvar": 4920,
      "Ġvol": 4921,
      "ulch": 4922,
      "seless": 4923,
      "Ġmanage": 4924,
      "ical": 4925,
      "icles": 4926,
      "ĠVen": 4927,
      "ĠVal": 4928,
      "ĠVillain": 4929,
      "Ġhated": 4930,
      "LOUGH": 4931,
      "Ġswain": 4932,
      "Ġbran": 4933,
      "ĠWhether": 4934,
      "Ġjot": 4935,
      "cies": 4936,
      "Ġproclam": 4937,
      "Ġdisgu": 4938,
      "Ġdeaths": 4939,
      "Ġeng": 4940,
      "Ġheartily": 4941,
      "Ġmarks": 4942,
      "irect": 4943,
      "Ġoffic": 4944,
      "ĠSoft": 4945,
      "Ġabused": 4946,
      "Ġdescent": 4947,
      "Ġripe": 4948,
      "Ġride": 4949,
      "Ġleague": 4950,
      "Ġwarri": 4951,
      "Ġslip": 4952,
      "Ġgreatness": 4953,
      "ĠBehold": 4954,
      "Ġbred": 4955,
      "ĠItaly": 4956,
      "Ġrain": 4957,
      "Ġrail": 4958,
      "Ġheavenly": 4959,
      "Ġclothes": 4960,
      "Ġsweeter": 4961,
      "Ġperhaps": 4962,
      "Ġscold": 4963,
      "Ġscandal": 4964,
      "ĠAnon": 4965,
      "Ġappointed": 4966,
      "Ġwhit": 4967,
      "Ġremorse": 4968,
      "Ġremove": 4969,
      "Ġremoved": 4970,
      "Ġbegan": 4971,
      "Ġrepose": 4972,
      "Ġharsh": 4973,
      "Ġkeeper": 4974,
      "Ġaccursed": 4975,
      "Ġyounger": 4976,
      "Ġyoungest": 4977,
      "ĠCLEOM": 4978,
      "Ġsubtle": 4979,
      "Ġdearly": 4980,
      "ĠWilliam": 4981,
      "Ġcoff": 4982,
      "Ġrights": 4983,
      "Ġminds": 4984,
      "Ġconfirm": 4985,
      "Ġmischance": 4986,
      "Ġsorrows": 4987,
      "Ġcareless": 4988,
      "Ġmeeting": 4989,
      "Ġlesser": 4990,
      "Ġobject": 4991,
      "ĠUncle": 4992,
      "Ġcounc": 4993,
      "Ġgriefs": 4994,
      "Ġhuman": 4995,
      "Ġadventure": 4996,
      "Ġserved": 4997,
      "Ġretire": 4998,
      "Ġcountrymen": 4999,
      "Ġcurt": 5000,
      "Ġgrat": 5001,
      "Ġhangs": 5002,
      "Ġcraves": 5003,
      "Ġcraft": 5004,
      "Ġstranger": 5005,
      "Ġwindows": 5006,
      "Ġbeauteous": 5007,
      "ĠDidst": 5008,
      "Ġyielded": 5009,
      "ĠCommend": 5010,
      "Ġsupply": 5011,
      "Ġcommonweal": 5012,
      "Ġmonument": 5013,
      "Ġsights": 5014,
      "Ġgrowing": 5015,
      "Ġsuffic": 5016,
      "Ġheirs": 5017,
      "ĠHappy": 5018,
      "Ġtrusty": 5019,
      "Ġinstruction": 5020,
      "Ġvisage": 5021,
      "Ġstronger": 5022,
      "Ġexecuted": 5023,
      "Ġincen": 5024,
      "Ġinfant": 5025,
      "Ġforeign": 5026,
      "Ġvel": 5027,
      "Ġburst": 5028,
      "Ġplainly": 5029,
      "Ġabsolute": 5030,
      "Ġfourteen": 5031,
      "Ġdirection": 5032,
      "Ġredress": 5033,
      "Ġselfsame": 5034,
      "Ġwriting": 5035,
      "Ġfrowns": 5036,
      "Ġsatisfy": 5037,
      "Ġestim": 5038,
      "Ġservants": 5039,
      "Ġblem": 5040,
      "Ġbabes": 5041,
      "Ġtriumphant": 5042,
      "Ġgallant": 5043,
      "Ġoccup": 5044,
      "Ġexecutioner": 5045,
      "ĠAmong": 5046,
      "Ġinnoc": 5047,
      "Ġfierce": 5048,
      "Ġshadows": 5049,
      "Ġpleasing": 5050,
      "Ġmodest": 5051,
      "Ġmodesty": 5052,
      "Ġuncles": 5053,
      "Ġignorance": 5054,
      "Ġbigger": 5055,
      "Ġrefuse": 5056,
      "banished": 5057,
      "ĠPerdita": 5058,
      "Ġfeather": 5059,
      "Ġdetermine": 5060,
      "Ġextremity": 5061,
      "ĠBetw": 5062,
      "ĠBetter": 5063,
      "Ġdismal": 5064,
      "Ġchaste": 5065,
      "Ġwager": 5066,
      "Ġshrewd": 5067,
      "Ġacquaint": 5068,
      "Ġprophet": 5069,
      "Ġedge": 5070,
      "Ġeagle": 5071,
      "Ġshroud": 5072,
      "othecary": 5073,
      "Ġsteeds": 5074,
      "Ġdearest": 5075,
      "Ġiron": 5076,
      "Ġtorture": 5077,
      "Ġwondrous": 5078,
      "Ġsepulch": 5079,
      "Ġtrembling": 5080,
      "Ġpolicy": 5081,
      "Ġrepeal": 5082,
      "ĠReturn": 5083,
      "Ġadversaries": 5084,
      "Ġpurchase": 5085,
      "Ġprivilege": 5086,
      "Ġopposite": 5087,
      "Ġconceal": 5088,
      "Ġflatterer": 5089,
      "ĠConspirator": 5090,
      "Ġdowry": 5091,
      "Ġpierce": 5092,
      "ĠBushy": 5093,
      "Ġstrokes": 5094,
      "ĠFollow": 5095,
      "Ġexercise": 5096,
      "ĠMariana": 5097,
      "ouchsafe": 5098,
      "Ġtrespass": 5099,
      "Ġcivil": 5100,
      "Ġthirty": 5101,
      "ĠADRIAN": 5102,
      "ĠWILLOUGH": 5103,
      "ĠLartius": 5104,
      "ĠFROTH": 5105,
      "ĠCLEOMENES": 5106,
      "ĠWILLOUGHBY": 5107,
      "EP": 5108,
      "NARD": 5109,
      "ax": 5110,
      "app": 5111,
      "but": 5112,
      "bble": 5113,
      "bio": 5114,
      "cest": 5115,
      "cue": 5116,
      "ded": 5117,
      "ders": 5118,
      "fellow": 5119,
      "gy": 5120,
      "ghan": 5121,
      "hrew": 5122,
      "iar": 5123,
      "iver": 5124,
      "ips": 5125,
      "mas": 5126,
      "master": 5127,
      "nken": 5128,
      "nicious": 5129,
      "oon": 5130,
      "pardon": 5131,
      "rity": 5132,
      "ratch": 5133,
      "sha": 5134,
      "son": 5135,
      "some": 5136,
      "sire": 5137,
      "sop": 5138,
      "tom": 5139,
      "vive": 5140,
      "vied": 5141,
      "we": 5142,
      "Ġeter": 5143,
      "Ġtou": 5144,
      "Ġtro": 5145,
      "Ġtig": 5146,
      "Ġah": 5147,
      "Ġale": 5148,
      "Ġages": 5149,
      "oubt": 5150,
      "Ġsn": 5151,
      "Ġsings": 5152,
      "Ġsought": 5153,
      "Ġmat": 5154,
      "Ġmain": 5155,
      "Ġmil": 5156,
      "Ġmethought": 5157,
      "Ġwore": 5158,
      "Ġward": 5159,
      "inate": 5160,
      "Ġbill": 5161,
      "Ġbore": 5162,
      "Ġbag": 5163,
      "Ġbrown": 5164,
      "Ġborrow": 5165,
      "ision": 5166,
      "orough": 5167,
      "Ġfard": 5168,
      "Ġfant": 5169,
      "Ġfran": 5170,
      "Ġfret": 5171,
      "Ġfix": 5172,
      "Ġfreed": 5173,
      "ĠIm": 5174,
      "ĠImp": 5175,
      "ering": 5176,
      "itt": 5177,
      "ital": 5178,
      "itiff": 5179,
      "Ġdate": 5180,
      "Ġdower": 5181,
      "Ġcrow": 5182,
      "Ġnet": 5183,
      "Ġnest": 5184,
      "Ġnice": 5185,
      "Ġnumb": 5186,
      "Ġnupt": 5187,
      "Ġlur": 5188,
      "Ġlance": 5189,
      "Ġlower": 5190,
      "Ġluck": 5191,
      "Ġlying": 5192,
      "Ġyon": 5193,
      "esu": 5194,
      "enge": 5195,
      "Ġthin": 5196,
      "Ġthie": 5197,
      "Ġthirst": 5198,
      "Ġthumb": 5199,
      "Ġhom": 5200,
      "Ġhind": 5201,
      "Ġhig": 5202,
      "Ġhire": 5203,
      "Ġhoney": 5204,
      "Ġomit": 5205,
      "Ġtomorrow": 5206,
      "Ġpear": 5207,
      "Ġpath": 5208,
      "Ġpage": 5209,
      "Ġpaid": 5210,
      "ĠAp": 5211,
      "Ġheat": 5212,
      "Ġheels": 5213,
      "owl": 5214,
      "ingers": 5215,
      "ann": 5216,
      "Ġgid": 5217,
      "atri": 5218,
      "atest": 5219,
      "Ġbere": 5220,
      "ĠWr": 5221,
      "ĠWit": 5222,
      "ĠWed": 5223,
      "ĠWife": 5224,
      "ĠWoe": 5225,
      "sey": 5226,
      "Ġink": 5227,
      "Ġhare": 5228,
      "Ġhaught": 5229,
      "cels": 5230,
      "ayed": 5231,
      "ĠBre": 5232,
      "ĠBur": 5233,
      "ĠBAR": 5234,
      "ĠSit": 5235,
      "ĠSur": 5236,
      "ĠSend": 5237,
      "Ġnoted": 5238,
      "chief": 5239,
      "ĠHang": 5240,
      "ĠMaking": 5241,
      "ĠMethought": 5242,
      "Ġforty": 5243,
      "keley": 5244,
      "ĠCast": 5245,
      "oops": 5246,
      "hern": 5247,
      "rible": 5248,
      "ĠOh": 5249,
      "ĠOld": 5250,
      "Ġstale": 5251,
      "Ġstern": 5252,
      "Ġstomach": 5253,
      "ĠLic": 5254,
      "ĠFal": 5255,
      "ĠFind": 5256,
      "ĠFair": 5257,
      "ĠGu": 5258,
      "ĠGree": 5259,
      "ĠGrace": 5260,
      "raid": 5261,
      "rage": 5262,
      "Ġlivery": 5263,
      "Ġliking": 5264,
      "INE": 5265,
      "ĠPri": 5266,
      "ĠPerc": 5267,
      "Ġdece": 5268,
      "Ġdeaf": 5269,
      "ĠRUT": 5270,
      "Ġshare": 5271,
      "Ġshapes": 5272,
      "Ġwills": 5273,
      "Ġdove": 5274,
      "Ġdogs": 5275,
      "Ġdozen": 5276,
      "ĠEly": 5277,
      "ĠEscal": 5278,
      "Ġbutt": 5279,
      "ĠDel": 5280,
      "ushing": 5281,
      "Ġsuits": 5282,
      "Ġhers": 5283,
      "Ġanointed": 5284,
      "Ġshallow": 5285,
      "ilth": 5286,
      "ilence": 5287,
      "Ġneat": 5288,
      "Ġvent": 5289,
      "Ġshook": 5290,
      "Ġshines": 5291,
      "Ġupright": 5292,
      "Ġgoods": 5293,
      "Ġprime": 5294,
      "Ġconceive": 5295,
      "Ġamiss": 5296,
      "ending": 5297,
      "icate": 5298,
      "ĠVau": 5299,
      "iege": 5300,
      "Ġblast": 5301,
      "Ġgodd": 5302,
      "ĠFortune": 5303,
      "Ġsirs": 5304,
      "ares": 5305,
      "ola": 5306,
      "Ġthereby": 5307,
      "ept": 5308,
      "eping": 5309,
      "Ġswore": 5310,
      "Ġsweat": 5311,
      "Ġorn": 5312,
      "Ġarrest": 5313,
      "Ġlets": 5314,
      "Ġunm": 5315,
      "Ġunse": 5316,
      "Ġunfe": 5317,
      "Ġworm": 5318,
      "Ġgrain": 5319,
      "aker": 5320,
      "Ġhop": 5321,
      "Ġlikely": 5322,
      "Ġprocess": 5323,
      "ueen": 5324,
      "Ġsav": 5325,
      "Ġmadness": 5326,
      "Ġplaces": 5327,
      "iced": 5328,
      "ĠJustice": 5329,
      "Ġdisease": 5330,
      "unate": 5331,
      "Ġtrunk": 5332,
      "Ġsomewhat": 5333,
      "Ġrans": 5334,
      "Ġoffices": 5335,
      "Ġalms": 5336,
      "harged": 5337,
      "orney": 5338,
      "Ġabuse": 5339,
      "Ġexam": 5340,
      "Ġlooked": 5341,
      "Ġthinking": 5342,
      "Ġtelling": 5343,
      "Ġwhereon": 5344,
      "ĠQueen": 5345,
      "agues": 5346,
      "ased": 5347,
      "Ġflow": 5348,
      "Ġflint": 5349,
      "Ġflourish": 5350,
      "ĠWherefore": 5351,
      "ĠWhereto": 5352,
      "AMUS": 5353,
      "Ġfearing": 5354,
      "bert": 5355,
      "Ġbreed": 5356,
      "Ġbread": 5357,
      "Ġparted": 5358,
      "Ġprep": 5359,
      "Ġpernicious": 5360,
      "Ġtroop": 5361,
      "Ġtroops": 5362,
      "Ġscatter": 5363,
      "ĠAnother": 5364,
      "ĠAnne": 5365,
      "ainty": 5366,
      "lied": 5367,
      "Ġmoves": 5368,
      "Ġcontro": 5369,
      "Ġappea": 5370,
      "ables": 5371,
      "Ġbeget": 5372,
      "Ġgraced": 5373,
      "Ġreply": 5374,
      "Ġreputation": 5375,
      "Ġchildish": 5376,
      "Ġrestra": 5377,
      "ercing": 5378,
      "cheth": 5379,
      "Ġtrif": 5380,
      "ĠProve": 5381,
      "Ġbestow": 5382,
      "Ġputting": 5383,
      "ontes": 5384,
      "Ġprice": 5385,
      "Ġsubd": 5386,
      "Ġbacks": 5387,
      "Ġcoll": 5388,
      "Ġtren": 5389,
      "Ġforthwith": 5390,
      "twill": 5391,
      "Ġbank": 5392,
      "Ġcheap": 5393,
      "Ġcharm": 5394,
      "ĠDoes": 5395,
      "Ġlaws": 5396,
      "Ġlightning": 5397,
      "Ġroyalty": 5398,
      "Ġhappily": 5399,
      "Ġmisfort": 5400,
      "Ġcareful": 5401,
      "ĠShore": 5402,
      "Ġcounsell": 5403,
      "Ġcourteous": 5404,
      "ĠAlthough": 5405,
      "Ġstrive": 5406,
      "Ġsleeping": 5407,
      "Ġdrag": 5408,
      "Ġadvised": 5409,
      "Ġserp": 5410,
      "Ġboast": 5411,
      "Ġwanting": 5412,
      "ĠAtt": 5413,
      "Ġdiscourse": 5414,
      "pense": 5415,
      "Ġcram": 5416,
      "Ġstraw": 5417,
      "Ġbreathing": 5418,
      "Ġsenseless": 5419,
      "Ġbeaut": 5420,
      "ĠDido": 5421,
      "hamed": 5422,
      "Ġgrew": 5423,
      "Ġyields": 5424,
      "Ġdrunken": 5425,
      "Ġcarried": 5426,
      "Ġspoil": 5427,
      "Ġmonster": 5428,
      "Ġmonarch": 5429,
      "Ġmetal": 5430,
      "Ġsooner": 5431,
      "IDAMUS": 5432,
      "Ġsadness": 5433,
      "ĠHadst": 5434,
      "ĠCambio": 5435,
      "Ġwooing": 5436,
      "Ġexecute": 5437,
      "Ġminute": 5438,
      "Ġsuitors": 5439,
      "Ġburnt": 5440,
      "Ġcoronation": 5441,
      "Ġwaves": 5442,
      "Ġpraises": 5443,
      "Ġproportion": 5444,
      "Ġliberal": 5445,
      "Ġwritten": 5446,
      "Ġburns": 5447,
      "Ġburning": 5448,
      "Ġblessing": 5449,
      "Ġbleeding": 5450,
      "Ġactions": 5451,
      "Ġcaps": 5452,
      "Ġbitterly": 5453,
      "Ġlimit": 5454,
      "Ġlimbs": 5455,
      "Ġrebels": 5456,
      "Ġviolence": 5457,
      "Ġsacrif": 5458,
      "Ġsuccession": 5459,
      "Ġpitiful": 5460,
      "acles": 5461,
      "Ġmidnight": 5462,
      "ĠWhiles": 5463,
      "ĠGreen": 5464,
      "Ġpossession": 5465,
      "Ġtorch": 5466,
      "Ġcaitiff": 5467,
      "Ġinjury": 5468,
      "Ġurge": 5469,
      "Ġchurchyard": 5470,
      "Ġmeddle": 5471,
      "Ġnobility": 5472,
      "Ġgrandsire": 5473,
      "Ġsaints": 5474,
      "ĠDisp": 5475,
      "Ġrank": 5476,
      "Ġguests": 5477,
      "headed": 5478,
      "Ġbehavior": 5479,
      "Ġunfold": 5480,
      "Ġdismiss": 5481,
      "Ġimagine": 5482,
      "Ġsubstance": 5483,
      "Ġmonths": 5484,
      "Ġhungry": 5485,
      "Ġbefall": 5486,
      "Ġinclined": 5487,
      "Ġaffords": 5488,
      "Ġcovert": 5489,
      "ĠWiltshire": 5490,
      "Ġnecessity": 5491,
      "Ġprevented": 5492,
      "Ġjoints": 5493,
      "Ġtyrann": 5494,
      "Ġlengthen": 5495,
      "Ġescape": 5496,
      "Ġshrift": 5497,
      "Ġsenses": 5498,
      "Ġstatue": 5499,
      "Ġbands": 5500,
      "Ġcensure": 5501,
      "Ġweapon": 5502,
      "ribunes": 5503,
      "Ġsteps": 5504,
      "Ġangel": 5505,
      "Ġconjure": 5506,
      "Ġtransp": 5507,
      "Ġthreatening": 5508,
      "Ġwolf": 5509,
      "Ġbottom": 5510,
      "ĠARCHIDAMUS": 5511,
      "Ġtapster": 5512,
      "ĠLeontes": 5513,
      "ĠRemember": 5514,
      "ĠElbow": 5515,
      "Ġapprehend": 5516,
      "Ġimmortal": 5517,
      "Ġintelligence": 5518,
      "Ġcompanion": 5519,
      "Ġmoral": 5520,
      "ĠBerkeley": 5521,
      "ĠLaurence": 5522,
      "Ġjewel": 5523,
      "Ġdispersed": 5524,
      "Ġruthless": 5525,
      "Ġrapier": 5526,
      "Ġclamour": 5527,
      "ĠStrike": 5528,
      "Ġzeal": 5529,
      "Ġcherish": 5530,
      "Ġstretch": 5531,
      "Ġrejoice": 5532,
      "Ġspleen": 5533,
      "Ġcharacter": 5534,
      "Ġprettiest": 5535,
      "Ġbirds": 5536,
      "Ġchallenge": 5537,
      "Ġpeevish": 5538,
      "Ġlikeness": 5539,
      "Ġproclamation": 5540,
      "Ġofficers": 5541,
      "Ġwarriors": 5542,
      "Ġcommonwealth": 5543,
      "Ġvelvet": 5544,
      "Ġsepulchre": 5545,
      "EPH": 5546,
      "NARDINE": 5547,
      "Ġfardel": 5548,
      "Ġnuptial": 5549,
      "Ġgiddy": 5550,
      "ĠBARNARDINE": 5551,
      "ĠSurrey": 5552,
      "ĠLicio": 5553,
      "ĠRUTLAND": 5554,
      "ĠEscalus": 5555,
      "ĠVaughan": 5556,
      "AG": 5557,
      "ATER": 5558,
      "BAN": 5559,
      "CRO": 5560,
      "EOR": 5561,
      "IR": 5562,
      "MOR": 5563,
      "OT": 5564,
      "TMOR": 5565,
      "WATER": 5566,
      "ZWATER": 5567,
      "action": 5568,
      "acy": 5569,
      "aoler": 5570,
      "bey": 5571,
      "cri": 5572,
      "cure": 5573,
      "dal": 5574,
      "foot": 5575,
      "got": 5576,
      "give": 5577,
      "iban": 5578,
      "kind": 5579,
      "light": 5580,
      "lace": 5581,
      "oes": 5582,
      "ront": 5583,
      "roof": 5584,
      "sen": 5585,
      "shall": 5586,
      "ta": 5587,
      "that": 5588,
      "vised": 5589,
      "vided": 5590,
      "wd": 5591,
      "wing": 5592,
      "which": 5593,
      "yc": 5594,
      "zed": 5595,
      "Ġice": 5596,
      "Ġought": 5597,
      "Ġtard": 5598,
      "Ġtack": 5599,
      "Ġtree": 5600,
      "Ġtied": 5601,
      "Ġtired": 5602,
      "Ġtakest": 5603,
      "hen": 5604,
      "here": 5605,
      "Ġaud": 5606,
      "Ġaged": 5607,
      "oured": 5608,
      "Ġsed": 5609,
      "Ġsess": 5610,
      "Ġsau": 5611,
      "Ġsides": 5612,
      "Ġsurp": 5613,
      "Ġsilly": 5614,
      "Ġmour": 5615,
      "Ġmould": 5616,
      "Ġwet": 5617,
      "Ġwave": 5618,
      "Ġwaked": 5619,
      "Ġwipe": 5620,
      "iners": 5621,
      "reet": 5622,
      "reant": 5623,
      "ndy": 5624,
      "Ġbay": 5625,
      "Ġbent": 5626,
      "Ġbru": 5627,
      "Ġbol": 5628,
      "Ġbalm": 5629,
      "ishes": 5630,
      "isement": 5631,
      "oriz": 5632,
      "Ġfin": 5633,
      "Ġfray": 5634,
      "Ġfever": 5635,
      "Ġfelt": 5636,
      "Ġfingers": 5637,
      "itch": 5638,
      "oned": 5639,
      "onus": 5640,
      "Ġcent": 5641,
      "Ġcook": 5642,
      "Ġcab": 5643,
      "Ġnar": 5644,
      "Ġlour": 5645,
      "Ġlun": 5646,
      "arm": 5647,
      "Ġtops": 5648,
      "Ġpor": 5649,
      "Ġpill": 5650,
      "Ġpent": 5651,
      "Ġphi": 5652,
      "Ġpick": 5653,
      "Ġpaint": 5654,
      "Ġpace": 5655,
      "Ġpict": 5656,
      "Ġpush": 5657,
      "Ġpalm": 5658,
      "Ġpomp": 5659,
      "ĠTen": 5660,
      "ĠToward": 5661,
      "ĠTrust": 5662,
      "ĠTribunes": 5663,
      "ĠAdd": 5664,
      "Ġhera": 5665,
      "Ġheight": 5666,
      "Ġgn": 5667,
      "Ġgam": 5668,
      "Ġgap": 5669,
      "Ġgains": 5670,
      "Ġgoose": 5671,
      "athe": 5672,
      "ater": 5673,
      "athed": 5674,
      "Ġbell": 5675,
      "Ġbeef": 5676,
      "Ġbeams": 5677,
      "ĠWES": 5678,
      "ĠWomen": 5679,
      "Ġinv": 5680,
      "Ġhail": 5681,
      "iring": 5682,
      "utch": 5683,
      "ĠBag": 5684,
      "ĠBAG": 5685,
      "Ġmew": 5686,
      "Ġmemb": 5687,
      "ĠSly": 5688,
      "ĠSus": 5689,
      "ĠSaw": 5690,
      "ĠSCRO": 5691,
      "ĠSIR": 5692,
      "Ġnotice": 5693,
      "ĠHon": 5694,
      "ĠHie": 5695,
      "ĠMis": 5696,
      "ĠMuch": 5697,
      "ĠCAR": 5698,
      "ĠCapt": 5699,
      "Ġwears": 5700,
      "Ġweek": 5701,
      "Ġeight": 5702,
      "rich": 5703,
      "riel": 5704,
      "Ġstead": 5705,
      "ĠLive": 5706,
      "Ġhist": 5707,
      "ĠFit": 5708,
      "ĠFive": 5709,
      "ĠFull": 5710,
      "ĠFIT": 5711,
      "ĠGra": 5712,
      "ĠGard": 5713,
      "ĠGEOR": 5714,
      "ĠGaoler": 5715,
      "Ġrend": 5716,
      "Ġrear": 5717,
      "Ġreach": 5718,
      "Ġrevel": 5719,
      "order": 5720,
      "Ġlions": 5721,
      "Ġlikes": 5722,
      "Ġlivest": 5723,
      "asp": 5724,
      "ĠPart": 5725,
      "ĠPers": 5726,
      "ĠPatience": 5727,
      "urgh": 5728,
      "alter": 5729,
      "Ġsoil": 5730,
      "Ġsoci": 5731,
      "Ġaspect": 5732,
      "Ġashamed": 5733,
      "Ġdem": 5734,
      "Ġdepose": 5735,
      "rog": 5736,
      "ĠName": 5737,
      "ĠNature": 5738,
      "hire": 5739,
      "cket": 5740,
      "verty": 5741,
      "ĠYield": 5742,
      "ĠEm": 5743,
      "ĠEver": 5744,
      "ĠElse": 5745,
      "ĠDian": 5746,
      "ushi": 5747,
      "Ġsevere": 5748,
      "Ġseated": 5749,
      "Ġalleg": 5750,
      "ĠThine": 5751,
      "ĠThings": 5752,
      "Ġherd": 5753,
      "Ġanch": 5754,
      "Ġload": 5755,
      "Ġlock": 5756,
      "Ġlovers": 5757,
      "tering": 5758,
      "Ġspot": 5759,
      "Ġspread": 5760,
      "Ġfavours": 5761,
      "Ġourself": 5762,
      "ilful": 5763,
      "iliar": 5764,
      "Ġvast": 5765,
      "Ġshru": 5766,
      "ulous": 5767,
      "Ġconsequ": 5768,
      "Ġamain": 5769,
      "Ġamends": 5770,
      "Ġambit": 5771,
      "Ġamorous": 5772,
      "ĠVirt": 5773,
      "ĠVouchsafe": 5774,
      "iece": 5775,
      "Ġshel": 5776,
      "Ġblot": 5777,
      "vensp": 5778,
      "Ġgoss": 5779,
      "emper": 5780,
      "arers": 5781,
      "olved": 5782,
      "olks": 5783,
      "Ġknowing": 5784,
      "resh": 5785,
      "Ġswears": 5786,
      "Ġbrat": 5787,
      "Ġarray": 5788,
      "Ġuna": 5789,
      "Ġunre": 5790,
      "igent": 5791,
      "igonus": 5792,
      "LIBAN": 5793,
      "Ġhoar": 5794,
      "Ġlikewise": 5795,
      "Ġproved": 5796,
      "Ġprodig": 5797,
      "Ġsaved": 5798,
      "umed": 5799,
      "ĠJesu": 5800,
      "Ġdisin": 5801,
      "Ġspeaking": 5802,
      "Ġpop": 5803,
      "Ġpoverty": 5804,
      "Ġoutrage": 5805,
      "uns": 5806,
      "ickle": 5807,
      "ĠWithdraw": 5808,
      "igned": 5809,
      "Ġmars": 5810,
      "Ġmarvel": 5811,
      "Ġmarvell": 5812,
      "Ġrate": 5813,
      "Ġrouse": 5814,
      "isting": 5815,
      "Ġalso": 5816,
      "ELAND": 5817,
      "Ġabund": 5818,
      "Ġexcept": 5819,
      "Ġrobb": 5820,
      "ĠQu": 5821,
      "aged": 5822,
      "Ġriches": 5823,
      "Ġflat": 5824,
      "Ġslight": 5825,
      "Ġslipp": 5826,
      "ĠWhereof": 5827,
      "Ġbetide": 5828,
      "Ġcouple": 5829,
      "Ġafraid": 5830,
      "Ġparties": 5831,
      "Ġpartner": 5832,
      "Ġrag": 5833,
      "Ġrack": 5834,
      "Ġraven": 5835,
      "idered": 5836,
      "Ġprefer": 5837,
      "Ġclock": 5838,
      "Ġsweetly": 5839,
      "Ġplebe": 5840,
      "ulls": 5841,
      "Ġtrim": 5842,
      "Ġpresume": 5843,
      "Ġpreserve": 5844,
      "Ġsca": 5845,
      "Ġscratch": 5846,
      "Ġnights": 5847,
      "Ġworldly": 5848,
      "Ġdownright": 5849,
      "Ġkeys": 5850,
      "perience": 5851,
      "ably": 5852,
      "Ġimper": 5853,
      "losop": 5854,
      "Ġinteg": 5855,
      "Ġmightst": 5856,
      "Ġstays": 5857,
      "Ġrue": 5858,
      "Ġrestore": 5859,
      "Ġleg": 5860,
      "Ġlect": 5861,
      "Ġlewd": 5862,
      "Ġentrance": 5863,
      "Ġsettled": 5864,
      "Ġtricks": 5865,
      "ĠProclaim": 5866,
      "Ġaccom": 5867,
      "Ġcompound": 5868,
      "Ġended": 5869,
      "Ġpurge": 5870,
      "Ġpurple": 5871,
      "Ġsmil": 5872,
      "Ġsmother": 5873,
      "Ġcouldst": 5874,
      "Ġtrain": 5875,
      "Ġtravell": 5876,
      "Ġcop": 5877,
      "Ġcoat": 5878,
      "Ġcozen": 5879,
      "Ġbidding": 5880,
      "Ġdrew": 5881,
      "Ġearthly": 5882,
      "Ġbrains": 5883,
      "Ġhomely": 5884,
      "Ġhelps": 5885,
      "Ġhopeful": 5886,
      "Ġcheque": 5887,
      "Ġconfound": 5888,
      "Ġbridal": 5889,
      "Ġlanded": 5890,
      "Ġmisc": 5891,
      "Ġholding": 5892,
      "Ġfalcon": 5893,
      "Ġbusy": 5894,
      "Ġfalls": 5895,
      "Ġobsequ": 5896,
      "Ġcourtier": 5897,
      "Ġstrict": 5898,
      "Ġsounds": 5899,
      "Ġsounded": 5900,
      "Ġbuzz": 5901,
      "Ġattain": 5902,
      "Ġattorney": 5903,
      "Ġthankful": 5904,
      "Ġretired": 5905,
      "Ġmerchant": 5906,
      "Ġrevenges": 5907,
      "erest": 5908,
      "Ġprompt": 5909,
      "Ġcontents": 5910,
      "Ġvillains": 5911,
      "Ġkisses": 5912,
      "Ġmerri": 5913,
      "ĠComes": 5914,
      "ĠComfort": 5915,
      "Ġwinters": 5916,
      "Ġlambs": 5917,
      "ĠCanst": 5918,
      "Ġlately": 5919,
      "Ġbeats": 5920,
      "Ġbeaten": 5921,
      "upid": 5922,
      "blood": 5923,
      "chers": 5924,
      "ventry": 5925,
      "Ġchosen": 5926,
      "Ġlearned": 5927,
      "Ġentreaties": 5928,
      "Ġdevilish": 5929,
      "guard": 5930,
      "gundy": 5931,
      "Ġboldly": 5932,
      "Ġboldness": 5933,
      "Ġyouthful": 5934,
      "Ġinfer": 5935,
      "Ġprofane": 5936,
      "ĠBecomes": 5937,
      "Ġreadiness": 5938,
      "Ġdivor": 5939,
      "Ġterm": 5940,
      "ĠCALIBAN": 5941,
      "ĠWelsh": 5942,
      "Ġcloudy": 5943,
      "Ġsignal": 5944,
      "Ġsignify": 5945,
      "Ġmusicians": 5946,
      "Ġwax": 5947,
      "Ġdroop": 5948,
      "ĠSwear": 5949,
      "Ġextreme": 5950,
      "Ġskill": 5951,
      "Ġgrieves": 5952,
      "Ġgrieved": 5953,
      "ĠELY": 5954,
      "Ġprophes": 5955,
      "Ġcheerly": 5956,
      "Ġwisely": 5957,
      "Ġcrook": 5958,
      "Ġexped": 5959,
      "Ġtroubl": 5960,
      "Ġsatisfaction": 5961,
      "Ġesteem": 5962,
      "Ġdarkness": 5963,
      "ĠAbove": 5964,
      "Ġbowels": 5965,
      "Ġtowns": 5966,
      "Ġflattering": 5967,
      "Ġfrail": 5968,
      "Ġhurl": 5969,
      "Ġsuddenly": 5970,
      "Ġcowardly": 5971,
      "Ġapprobation": 5972,
      "Ġlamentable": 5973,
      "Ġowes": 5974,
      "Ġinsol": 5975,
      "ĠBlunt": 5976,
      "Ġeaten": 5977,
      "Ġkinsmen": 5978,
      "Ġmiddle": 5979,
      "Ġdestruction": 5980,
      "Ġdeparture": 5981,
      "Ġfondly": 5982,
      "ĠAdieu": 5983,
      "Ġusurping": 5984,
      "umbling": 5985,
      "Ġgladly": 5986,
      "Ġships": 5987,
      "Ġmildness": 5988,
      "Ġtreasons": 5989,
      "mediate": 5990,
      "volio": 5991,
      "Ġapace": 5992,
      "Ġshop": 5993,
      "Ġshoes": 5994,
      "Ġlists": 5995,
      "ĠSTEPH": 5996,
      "Ġsentenced": 5997,
      "Ġcondemned": 5998,
      "Ġtroubled": 5999,
      "Ġmutinous": 6000,
      "Ġpetty": 6001,
      "ĠAntigonus": 6002,
      "Ġstorms": 6003,
      "Ġgrandam": 6004,
      "Ġtemples": 6005,
      "Ġstops": 6006,
      "ĠPerhaps": 6007,
      "Ġconquest": 6008,
      "Ġbastards": 6009,
      "Ġeldest": 6010,
      "Ġconstable": 6011,
      "ĠNeither": 6012,
      "ĠEXTON": 6013,
      "Ġneighbours": 6014,
      "Ġamongst": 6015,
      "Ġprovide": 6016,
      "Ġgreeting": 6017,
      "Ġministers": 6018,
      "ĠDesp": 6019,
      "Ġconclud": 6020,
      "Ġconclude": 6021,
      "Ġacquainted": 6022,
      "Ġgifts": 6023,
      "Ġghostly": 6024,
      "join": 6025,
      "Ġeleven": 6026,
      "Ġrobes": 6027,
      "Ġdesigns": 6028,
      "Ġtempted": 6029,
      "Ġdetest": 6030,
      "ĠShalt": 6031,
      "ĠPrepare": 6032,
      "Ġdearer": 6033,
      "Ġheavier": 6034,
      "Ġpersuade": 6035,
      "Ġerrand": 6036,
      "Ġwandering": 6037,
      "Ġweapons": 6038,
      "Ġvanity": 6039,
      "Ġaccusation": 6040,
      "Ġfrost": 6041,
      "Ġpiercing": 6042,
      "ĠCoventry": 6043,
      "Ġdiscontented": 6044,
      "Ġtestim": 6045,
      "ĠAppear": 6046,
      "Ġhazard": 6047,
      "ĠCaliban": 6048,
      "Ġstolen": 6049,
      "Ġinstantly": 6050,
      "iveness": 6051,
      "Ġfigure": 6052,
      "Ġfurnish": 6053,
      "Ġparents": 6054,
      "Ġrevolt": 6055,
      "Ġnobleness": 6056,
      "Ġprovoked": 6057,
      "Ġrecompense": 6058,
      "Ġcircumstance": 6059,
      "Ġfiend": 6060,
      "Ġceremon": 6061,
      "ĠBenvolio": 6062,
      "ĠMinola": 6063,
      "Ġreckon": 6064,
      "LISLE": 6065,
      "Ġreconcile": 6066,
      "Ġunkindness": 6067,
      "Ġsubstitute": 6068,
      "Ġpilgrimage": 6069,
      "Ġcomplexion": 6070,
      "nesday": 6071,
      "onstant": 6072,
      "ĠCurtis": 6073,
      "ĠRavensp": 6074,
      "Ġseized": 6075,
      "Ġneglect": 6076,
      "Ġvarlet": 6077,
      "ĠVenice": 6078,
      "Ġsufficient": 6079,
      "Ġestimation": 6080,
      "Ġblemish": 6081,
      "Ġoccupation": 6082,
      "Ġfantast": 6083,
      "Ġfrank": 6084,
      "Ġfreedom": 6085,
      "Ġthieves": 6086,
      "ĠWednesday": 6087,
      "ĠBurgundy": 6088,
      "ĠFalse": 6089,
      "Ġgoddess": 6090,
      "Ġsavage": 6091,
      "Ġransom": 6092,
      "Ġexample": 6093,
      "Ġmisfortune": 6094,
      "Ġtyrannous": 6095,
      "TMORELAND": 6096,
      "Ġnarrow": 6097,
      "Ġphilosop": 6098,
      "ĠTowards": 6099,
      "Ġherald": 6100,
      "ĠWESTMORELAND": 6101,
      "ĠBagot": 6102,
      "ĠBAGOT": 6103,
      "Ġmembers": 6104,
      "ĠSCROOP": 6105,
      "ĠCARLISLE": 6106,
      "ĠCaptain": 6107,
      "ĠFITZWATER": 6108,
      "ĠGardener": 6109,
      "ĠGEORGE": 6110,
      "ĠPersu": 6111,
      "Ġallegiance": 6112,
      "Ġambitious": 6113,
      "Ġintegrity": 6114,
      "ĠSTEPHEN": 6115,
      "ĠRavenspurgh": 6116,
      "Ġphilosophy": 6117,
      "BISHOP": 6118,
      "Hic": 6119,
      "What": 6120,
      "Zounds": 6121,
      "avour": 6122,
      "br": 6123,
      "bot": 6124,
      "bour": 6125,
      "back": 6126,
      "boy": 6127,
      "board": 6128,
      "bric": 6129,
      "cra": 6130,
      "cus": 6131,
      "do": 6132,
      "des": 6133,
      "done": 6134,
      "eb": 6135,
      "eves": 6136,
      "gea": 6137,
      "gic": 6138,
      "gues": 6139,
      "hors": 6140,
      "horse": 6141,
      "ipt": 6142,
      "kest": 6143,
      "lor": 6144,
      "len": 6145,
      "low": 6146,
      "lain": 6147,
      "last": 6148,
      "lance": 6149,
      "liness": 6150,
      "longs": 6151,
      "made": 6152,
      "oble": 6153,
      "off": 6154,
      "ocate": 6155,
      "ris": 6156,
      "rish": 6157,
      "tin": 6158,
      "tied": 6159,
      "trees": 6160,
      "uc": 6161,
      "ug": 6162,
      "uiv": 6163,
      "ually": 6164,
      "vir": 6165,
      "wer": 6166,
      "wear": 6167,
      "work": 6168,
      "water": 6169,
      "Ġtrow": 6170,
      "Ġtie": 6171,
      "Ġtorn": 6172,
      "Ġtaking": 6173,
      "Ġack": 6174,
      "Ġafe": 6175,
      "Ġape": 6176,
      "Ġsow": 6177,
      "Ġsand": 6178,
      "Ġsong": 6179,
      "Ġsixt": 6180,
      "Ġmom": 6181,
      "Ġmas": 6182,
      "Ġmouse": 6183,
      "Ġmates": 6184,
      "Ġmurde": 6185,
      "Ġmask": 6186,
      "inu": 6187,
      "inal": 6188,
      "inies": 6189,
      "inces": 6190,
      "hand": 6191,
      "hage": 6192,
      "nday": 6193,
      "Ġbul": 6194,
      "Ġbows": 6195,
      "Ġbail": 6196,
      "Ġbounty": 6197,
      "orax": 6198,
      "Ġfre": 6199,
      "Ġfan": 6200,
      "Ġfif": 6201,
      "Ġfrant": 6202,
      "Ġfount": 6203,
      "Ġfift": 6204,
      "Ġfulf": 6205,
      "Ġfront": 6206,
      "Ġfolks": 6207,
      "erp": 6208,
      "onio": 6209,
      "Ġdot": 6210,
      "Ġdine": 6211,
      "Ġdried": 6212,
      "Ġdined": 6213,
      "Ġdiest": 6214,
      "Ġdash": 6215,
      "Ġcord": 6216,
      "Ġcro": 6217,
      "Ġcool": 6218,
      "Ġcrows": 6219,
      "Ġcords": 6220,
      "Ġcushi": 6221,
      "Ġnort": 6222,
      "Ġnigh": 6223,
      "Ġnamed": 6224,
      "Ġnimble": 6225,
      "Ġlute": 6226,
      "Ġlads": 6227,
      "Ġlinger": 6228,
      "Ġyare": 6229,
      "Ġyester": 6230,
      "ening": 6231,
      "enches": 6232,
      "Ġthw": 6233,
      "Ġthrown": 6234,
      "arried": 6235,
      "Ġhill": 6236,
      "Ġtoads": 6237,
      "Ġpow": 6238,
      "Ġpour": 6239,
      "Ġpest": 6240,
      "Ġpant": 6241,
      "Ġpup": 6242,
      "ĠTra": 6243,
      "ĠTun": 6244,
      "ĠTalk": 6245,
      "ĠTew": 6246,
      "ĠTouch": 6247,
      "ĠTeach": 6248,
      "ĠTroy": 6249,
      "ĠAc": 6250,
      "ĠAff": 6251,
      "ĠABRA": 6252,
      "ĠAriel": 6253,
      "Ġheel": 6254,
      "Ġheinous": 6255,
      "otland": 6256,
      "Ġgather": 6257,
      "Ġgame": 6258,
      "Ġgust": 6259,
      "Ġgaunt": 6260,
      "ĠWest": 6261,
      "ĠWert": 6262,
      "ĠWalter": 6263,
      "Ġinch": 6264,
      "Ġinward": 6265,
      "Ġinvent": 6266,
      "Ġhag": 6267,
      "Ġhaunt": 6268,
      "lect": 6269,
      "aying": 6270,
      "uts": 6271,
      "ĠBest": 6272,
      "ĠBound": 6273,
      "ĠBold": 6274,
      "ĠBishop": 6275,
      "Ġmeed": 6276,
      "Ġmeal": 6277,
      "iments": 6278,
      "ĠSyc": 6279,
      "ĠHar": 6280,
      "ĠMur": 6281,
      "Ġforso": 6282,
      "Ġug": 6283,
      "ĠChe": 6284,
      "ĠCart": 6285,
      "ĠCont": 6286,
      "ĠContent": 6287,
      "ĠCourage": 6288,
      "ĠCupid": 6289,
      "Ġeff": 6290,
      "advent": 6291,
      "advised": 6292,
      "ril": 6293,
      "ĠOver": 6294,
      "Ġstink": 6295,
      "Ġstag": 6296,
      "Ġstark": 6297,
      "Ġsteep": 6298,
      "Ġstiff": 6299,
      "Ġkites": 6300,
      "ĠLend": 6301,
      "ĠLies": 6302,
      "ĠLead": 6303,
      "ĠFell": 6304,
      "ĠFall": 6305,
      "ĠFoul": 6306,
      "ĠFetch": 6307,
      "ĠGives": 6308,
      "Ġrein": 6309,
      "Ġresemb": 6310,
      "Ġrevive": 6311,
      "iders": 6312,
      "rament": 6313,
      "racious": 6314,
      "Ġlick": 6315,
      "Ġlief": 6316,
      "asant": 6317,
      "ĠPem": 6318,
      "ĠPurs": 6319,
      "urb": 6320,
      "uring": 6321,
      "alks": 6322,
      "Ġash": 6323,
      "Ġashes": 6324,
      "Ġdeer": 6325,
      "Ġdeform": 6326,
      "ĠRel": 6327,
      "roach": 6328,
      "ĠNed": 6329,
      "ĠNep": 6330,
      "Ġshade": 6331,
      "Ġdole": 6332,
      "Ġnod": 6333,
      "Ġnoon": 6334,
      "amy": 6335,
      "amity": 6336,
      "aments": 6337,
      "ĠEr": 6338,
      "Ġbutter": 6339,
      "ĠDest": 6340,
      "ĠDep": 6341,
      "ĠDiv": 6342,
      "Ġsearch": 6343,
      "anders": 6344,
      "ĠThrow": 6345,
      "rue": 6346,
      "ruly": 6347,
      "Ġann": 6348,
      "Ġancest": 6349,
      "Ġlodge": 6350,
      "Ġloathed": 6351,
      "Ġspark": 6352,
      "Ġspurs": 6353,
      "Ġspider": 6354,
      "ĠKent": 6355,
      "ĠKind": 6356,
      "ella": 6357,
      "Ġvul": 6358,
      "Ġvass": 6359,
      "Ġvouch": 6360,
      "Ġvial": 6361,
      "Ġventure": 6362,
      "ctor": 6363,
      "ousins": 6364,
      "Ġwhatsoever": 6365,
      "Ġshot": 6366,
      "Ġshown": 6367,
      "ules": 6368,
      "Ġprate": 6369,
      "Ġprint": 6370,
      "Ġprating": 6371,
      "Ġmanhood": 6372,
      "Ġamaz": 6373,
      "icle": 6374,
      "ication": 6375,
      "Ġblue": 6376,
      "Ġblown": 6377,
      "Ġbliss": 6378,
      "Ġblaze": 6379,
      "Ġblushing": 6380,
      "ived": 6381,
      "ively": 6382,
      "Ġtheme": 6383,
      "Ġthereto": 6384,
      "oster": 6385,
      "Ġcanop": 6386,
      "Ġswoon": 6387,
      "Ġherein": 6388,
      "Ġorator": 6389,
      "Ġbranch": 6390,
      "Ġarise": 6391,
      "Ġunlike": 6392,
      "Ġunruly": 6393,
      "Ġworms": 6394,
      "Ġworser": 6395,
      "Ġgrass": 6396,
      "Ġgraces": 6397,
      "Ġmustard": 6398,
      "Ġseeks": 6399,
      "Ġshoulders": 6400,
      "Ġlikeli": 6401,
      "Ġsap": 6402,
      "Ġsack": 6403,
      "Ġplan": 6404,
      "Ġplaint": 6405,
      "peian": 6406,
      "ĠJup": 6407,
      "Ġdiso": 6408,
      "Ġdissemb": 6409,
      "Ġenforced": 6410,
      "Ġenrich": 6411,
      "ption": 6412,
      "uned": 6413,
      "Ġrhe": 6414,
      "Ġranc": 6415,
      "Ġrush": 6416,
      "Ġroof": 6417,
      "Ġrushes": 6418,
      "Ġoffences": 6419,
      "Ġalar": 6420,
      "Ġaloud": 6421,
      "Ġbrotherhood": 6422,
      "Ġexceed": 6423,
      "Ġfox": 6424,
      "Ġroses": 6425,
      "Ġroaring": 6426,
      "Ġdesc": 6427,
      "Ġrig": 6428,
      "Ġleap": 6429,
      "Ġleaving": 6430,
      "Ġflock": 6431,
      "Ġslily": 6432,
      "aped": 6433,
      "Ġrace": 6434,
      "Ġcommends": 6435,
      "Ġcler": 6436,
      "Ġsweetest": 6437,
      "Ġperd": 6438,
      "Ġperfection": 6439,
      "Ġpermit": 6440,
      "Ġwring": 6441,
      "Ġotherwise": 6442,
      "awful": 6443,
      "Ġmeaner": 6444,
      "Ġscore": 6445,
      "Ġnighting": 6446,
      "ĠAnswer": 6447,
      "lier": 6448,
      "Ġmoe": 6449,
      "Ġmoving": 6450,
      "Ġmoiety": 6451,
      "Ġdownfall": 6452,
      "Ġappears": 6453,
      "Ġwhist": 6454,
      "Ġkey": 6455,
      "ĠThank": 6456,
      "Ġmothers": 6457,
      "ranch": 6458,
      "Ġeverlast": 6459,
      "Ġintents": 6460,
      "Ġfriendship": 6461,
      "Ġconsidered": 6462,
      "ksbury": 6463,
      "Ġrum": 6464,
      "Ġrests": 6465,
      "Ġpeer": 6466,
      "Ġlevel": 6467,
      "Ġharl": 6468,
      "Ġharvest": 6469,
      "Ġharbour": 6470,
      "attern": 6471,
      "ĠProsper": 6472,
      "oses": 6473,
      "Ġbestri": 6474,
      "Ġaccomp": 6475,
      "Ġhenceforth": 6476,
      "Ġcompare": 6477,
      "Ġfaced": 6478,
      "Ġendured": 6479,
      "ulting": 6480,
      "ĠThyself": 6481,
      "Ġchamp": 6482,
      "Ġdearth": 6483,
      "Ġcoast": 6484,
      "Ġtrees": 6485,
      "Ġbrand": 6486,
      "Ġchances": 6487,
      "Ġchanging": 6488,
      "twould": 6489,
      "isterous": 6490,
      "Ġcharges": 6491,
      "Ġconfidence": 6492,
      "Ġconfeder": 6493,
      "Ġimpeach": 6494,
      "Ġlights": 6495,
      "Ġbeside": 6496,
      "Ġroyalties": 6497,
      "Ġfully": 6498,
      "Ġdevour": 6499,
      "Ġafterward": 6500,
      "Ġwronged": 6501,
      "Ġmischief": 6502,
      "Ġlasting": 6503,
      "Ġthousands": 6504,
      "Ġpatron": 6505,
      "Ġfallen": 6506,
      "Ġfalling": 6507,
      "Ġobs": 6508,
      "Ġobsc": 6509,
      "ĠAlban": 6510,
      "Ġstrife": 6511,
      "Ġtalking": 6512,
      "Ġhumility": 6513,
      "Ġbelong": 6514,
      "Ġbelieved": 6515,
      "Ġdram": 6516,
      "Ġadvocate": 6517,
      "Ġserious": 6518,
      "Ġwelc": 6519,
      "Ġboisterous": 6520,
      "Ġpersons": 6521,
      "Ġdancing": 6522,
      "Ġdoubtful": 6523,
      "Ġgrim": 6524,
      "Ġhangman": 6525,
      "Ġrevenue": 6526,
      "Ġdischarge": 6527,
      "Ġcrab": 6528,
      "Ġcommands": 6529,
      "Ġwindow": 6530,
      "Ġproudest": 6531,
      "ĠSunday": 6532,
      "Ġdepend": 6533,
      "Ġyielding": 6534,
      "Ġbreaks": 6535,
      "Ġtemple": 6536,
      "ĠCommit": 6537,
      "ĠCommand": 6538,
      "Ġsupport": 6539,
      "Ġsitting": 6540,
      "Ġcarries": 6541,
      "Ġrequire": 6542,
      "Ġdefy": 6543,
      "Ġtenderness": 6544,
      "Ġsadly": 6545,
      "Ġreported": 6546,
      "Ġchose": 6547,
      "Ġgrowth": 6548,
      "ĠMontagues": 6549,
      "Ġrecreant": 6550,
      "Ġwatery": 6551,
      "Ġasking": 6552,
      "Ġsilk": 6553,
      "Ġlearning": 6554,
      "ĠHapp": 6555,
      "Ġbattles": 6556,
      "Ġcrying": 6557,
      "Ġentreaty": 6558,
      "Ġdevils": 6559,
      "shine": 6560,
      "Ġmurders": 6561,
      "Ġruns": 6562,
      "Ġrevengeful": 6563,
      "Ġquarter": 6564,
      "Ġconfessor": 6565,
      "Ġconfession": 6566,
      "Ġdelicate": 6567,
      "Ġspeedy": 6568,
      "Ġdespised": 6569,
      "Ġforehead": 6570,
      "Ġterr": 6571,
      "Ġminutes": 6572,
      "Ġbosoms": 6573,
      "there": 6574,
      "Ġveil": 6575,
      "Ġwonderful": 6576,
      "Ġharmony": 6577,
      "Ġguiltless": 6578,
      "Ġattended": 6579,
      "Ġmurderous": 6580,
      "ĠVolscians": 6581,
      "ĠVolscian": 6582,
      "Twixt": 6583,
      "Ġsingular": 6584,
      "Ġburden": 6585,
      "Ġdistra": 6586,
      "Ġdistress": 6587,
      "Ġdisturb": 6588,
      "Ġacts": 6589,
      "Ġmusician": 6590,
      "Ġwaits": 6591,
      "Ġclosed": 6592,
      "Ġbeggars": 6593,
      "Ġsuffering": 6594,
      "Ġsufferance": 6595,
      "Ġbreasts": 6596,
      "Ġwedded": 6597,
      "Ġdukes": 6598,
      "Ġcrim": 6599,
      "Ġcrush": 6600,
      "Ġembass": 6601,
      "Ġredempt": 6602,
      "ĠRead": 6603,
      "ĠReady": 6604,
      "Ġfeasts": 6605,
      "Ġgroom": 6606,
      "Ġundo": 6607,
      "Ġbowl": 6608,
      "Ġinterrupt": 6609,
      "Ġevils": 6610,
      "Ġsumm": 6611,
      "Ġvisitation": 6612,
      "Ġbaby": 6613,
      "Ġframed": 6614,
      "Ġknocks": 6615,
      "Ġsafely": 6616,
      "Ġsafeguard": 6617,
      "ĠIsabella": 6618,
      "Ġignoble": 6619,
      "Ġoppression": 6620,
      "Ġpuiss": 6621,
      "standing": 6622,
      "Ġsacrament": 6623,
      "Ġapproved": 6624,
      "Ġleaden": 6625,
      "ĠStands": 6626,
      "Ġlamentation": 6627,
      "Ġclean": 6628,
      "Ġpitied": 6629,
      "Ġinsinu": 6630,
      "Ġunworthy": 6631,
      "Ġunwilling": 6632,
      "Ġsecrets": 6633,
      "Ġdrinking": 6634,
      "Ġsurfeit": 6635,
      "Ġmidst": 6636,
      "Ġmidwife": 6637,
      "Ġdestiny": 6638,
      "Ġsmallest": 6639,
      "Ġdamnable": 6640,
      "Ġutmost": 6641,
      "ĠAdv": 6642,
      "ĠBritt": 6643,
      "Ġeasily": 6644,
      "Ġproceedings": 6645,
      "Ġmildly": 6646,
      "Ġcauses": 6647,
      "Ġinjustice": 6648,
      "Ġapart": 6649,
      "Ġmedic": 6650,
      "Ġmodel": 6651,
      "Ġfamiliar": 6652,
      "ĠTwice": 6653,
      "ĠMistake": 6654,
      "Ġreigns": 6655,
      "ossess": 6656,
      "ĠTruly": 6657,
      "ĠAntonio": 6658,
      "Ġprosperity": 6659,
      "Ġlenity": 6660,
      "Ġlowly": 6661,
      "Ġbending": 6662,
      "ĠScotland": 6663,
      "Ġslanderous": 6664,
      "Ġpursue": 6665,
      "Ġpursuit": 6666,
      "ĠCapulets": 6667,
      "Ġmountain": 6668,
      "angling": 6669,
      "Ġplants": 6670,
      "Ġprovided": 6671,
      "Ġextremes": 6672,
      "Ġbald": 6673,
      "Ġimagination": 6674,
      "Ġglasses": 6675,
      "Ġconclusion": 6676,
      "Ġunlook": 6677,
      "Ġunluck": 6678,
      "Ġunpro": 6679,
      "Ġprophecy": 6680,
      "rateful": 6681,
      "shearing": 6682,
      "Ġdisgraced": 6683,
      "Ġavoided": 6684,
      "Ġdrift": 6685,
      "Ġcrept": 6686,
      "Ġeager": 6687,
      "Ġloathsome": 6688,
      "Ġloyalty": 6689,
      "Ġaims": 6690,
      "Ġsensible": 6691,
      "Ġpinch": 6692,
      "Ġpilot": 6693,
      "Ġinfected": 6694,
      "Ġstatutes": 6695,
      "Ġstocks": 6696,
      "Ġchiefest": 6697,
      "govern": 6698,
      "Ġcalamity": 6699,
      "Ġangels": 6700,
      "Ġlodged": 6701,
      "Ġlodging": 6702,
      "Ġcracking": 6703,
      "Ġcorruption": 6704,
      "Ġconqueror": 6705,
      "Ġtutor": 6706,
      "Ġfleet": 6707,
      "Ġfrozen": 6708,
      "ĠARCHBISHOP": 6709,
      "Ġcloak": 6710,
      "Ġwhoreson": 6711,
      "Ġadvanced": 6712,
      "Ġmagist": 6713,
      "Ġconcerns": 6714,
      "Ġcompassion": 6715,
      "Ġsprings": 6716,
      "Ġswelling": 6717,
      "Ġabhorr": 6718,
      "Ġadverse": 6719,
      "Ġperjured": 6720,
      "Ġwhispering": 6721,
      "ĠSuppose": 6722,
      "Ġafflict": 6723,
      "Ġmultitude": 6724,
      "Ġnails": 6725,
      "Ġlinea": 6726,
      "ĠTarpeian": 6727,
      "Ġinquire": 6728,
      "Ġmanifest": 6729,
      "Ġdispleasure": 6730,
      "Ġclimate": 6731,
      "Ġwrinkled": 6732,
      "Ġcorrection": 6733,
      "ĠConfess": 6734,
      "ĠAntium": 6735,
      "Ġtaunts": 6736,
      "Ġmoody": 6737,
      "Ġpedlar": 6738,
      "ĠSometime": 6739,
      "Ġsteward": 6740,
      "ĠLieutenant": 6741,
      "Ġbranches": 6742,
      "Ġincensed": 6743,
      "Ġinnocence": 6744,
      "Ġflatterers": 6745,
      "Ġeternal": 6746,
      "Ġtiger": 6747,
      "Ġmilk": 6748,
      "Ġnumbers": 6749,
      "Ġhinder": 6750,
      "Ġpearl": 6751,
      "Ġbereft": 6752,
      "ĠBreak": 6753,
      "Ġornaments": 6754,
      "Ġunseen": 6755,
      "Ġtrifles": 6756,
      "Ġcounsellor": 6757,
      "Ġserpent": 6758,
      "Ġtardy": 6759,
      "Ġsurpr": 6760,
      "Ġcabin": 6761,
      "Ġlunatic": 6762,
      "Ġhistory": 6763,
      "Ġconsequence": 6764,
      "ĠVirtue": 6765,
      "Ġpopular": 6766,
      "Ġmarshal": 6767,
      "Ġmarvellous": 6768,
      "Ġplebeians": 6769,
      "Ġprophesy": 6770,
      "Ġceremonious": 6771,
      "uivant": 6772,
      "Ġacknow": 6773,
      "Ġafeard": 6774,
      "Ġsixteen": 6775,
      "Ġmoment": 6776,
      "Ġmurdered": 6777,
      "Ġfrantic": 6778,
      "Ġfifteen": 6779,
      "Ġnorthern": 6780,
      "ĠTunis": 6781,
      "ĠTewksbury": 6782,
      "ĠABRAHAM": 6783,
      "ĠSycorax": 6784,
      "ĠMurder": 6785,
      "Ġforsooth": 6786,
      "ĠCarthage": 6787,
      "adventure": 6788,
      "ĠPembroke": 6789,
      "ĠNeptune": 6790,
      "Ġlikelihood": 6791,
      "ĠJupiter": 6792,
      "Ġredemption": 6793,
      "ĠBrittany": 6794,
      "AGE": 6795,
      "Be": 6796,
      "Gain": 6797,
      "He": 6798,
      "IEL": 6799,
      "MILIA": 6800,
      "REY": 6801,
      "St": 6802,
      "The": 6803,
      "ais": 6804,
      "ald": 6805,
      "aches": 6806,
      "avish": 6807,
      "bid": 6808,
      "bell": 6809,
      "bles": 6810,
      "bearer": 6811,
      "cis": 6812,
      "cat": 6813,
      "core": 6814,
      "cast": 6815,
      "cock": 6816,
      "cund": 6817,
      "duce": 6818,
      "ex": 6819,
      "eks": 6820,
      "franch": 6821,
      "good": 6822,
      "gage": 6823,
      "grown": 6824,
      "gled": 6825,
      "gory": 6826,
      "greed": 6827,
      "hur": 6828,
      "iqu": 6829,
      "ivers": 6830,
      "jud": 6831,
      "kens": 6832,
      "lm": 6833,
      "lu": 6834,
      "look": 6835,
      "leness": 6836,
      "met": 6837,
      "miss": 6838,
      "overy": 6839,
      "ops": 6840,
      "opher": 6841,
      "ph": 6842,
      "por": 6843,
      "phan": 6844,
      "ples": 6845,
      "pret": 6846,
      "picious": 6847,
      "rge": 6848,
      "sion": 6849,
      "side": 6850,
      "scape": 6851,
      "ule": 6852,
      "uge": 6853,
      "uish": 6854,
      "uced": 6855,
      "ukes": 6856,
      "ueless": 6857,
      "vil": 6858,
      "wit": 6859,
      "will": 6860,
      "witted": 6861,
      "your": 6862,
      "Ġire": 6863,
      "Ġton": 6864,
      "Ġtur": 6865,
      "Ġtea": 6866,
      "Ġtink": 6867,
      "Ġtreat": 6868,
      "Ġtents": 6869,
      "Ġtainted": 6870,
      "Ġtailor": 6871,
      "Ġtamed": 6872,
      "Ġtumble": 6873,
      "heard": 6874,
      "Ġav": 6875,
      "Ġafore": 6876,
      "ouches": 6877,
      "Ġsith": 6878,
      "Ġsine": 6879,
      "Ġsiege": 6880,
      "Ġmast": 6881,
      "Ġmant": 6882,
      "Ġmiles": 6883,
      "Ġwester": 6884,
      "Ġwaken": 6885,
      "Ġwilful": 6886,
      "Ġwenches": 6887,
      "iner": 6888,
      "reth": 6889,
      "haeth": 6890,
      "habit": 6891,
      "Ġbought": 6892,
      "Ġbount": 6893,
      "Ġbishop": 6894,
      "isher": 6895,
      "isome": 6896,
      "oricles": 6897,
      "Ġfet": 6898,
      "Ġfest": 6899,
      "Ġfem": 6900,
      "Ġfits": 6901,
      "Ġfilth": 6902,
      "ĠIll": 6903,
      "lling": 6904,
      "lled": 6905,
      "itting": 6906,
      "Ġder": 6907,
      "Ġdom": 6908,
      "Ġded": 6909,
      "Ġdil": 6910,
      "Ġdame": 6911,
      "Ġdiet": 6912,
      "Ġdrows": 6913,
      "Ġdumb": 6914,
      "Ġcand": 6915,
      "Ġcard": 6916,
      "Ġcave": 6917,
      "Ġcuck": 6918,
      "Ġcrew": 6919,
      "Ġcrest": 6920,
      "Ġcurious": 6921,
      "Ġcousins": 6922,
      "Ġnon": 6923,
      "Ġnaught": 6924,
      "Ġnourish": 6925,
      "Ġlink": 6926,
      "Ġlace": 6927,
      "Ġloose": 6928,
      "Ġlends": 6929,
      "Ġlung": 6930,
      "Ġlatest": 6931,
      "eny": 6932,
      "enown": 6933,
      "Ġthres": 6934,
      "Ġthrees": 6935,
      "aration": 6936,
      "arison": 6937,
      "Ġhy": 6938,
      "Ġhood": 6939,
      "Ġobt": 6940,
      "Ġtoe": 6941,
      "Ġtoy": 6942,
      "Ġtoken": 6943,
      "Ġtower": 6944,
      "Ġpine": 6945,
      "Ġpate": 6946,
      "Ġpull": 6947,
      "Ġpedant": 6948,
      "Ġpounds": 6949,
      "Ġprun": 6950,
      "Ġpattern": 6951,
      "ĠTur": 6952,
      "ĠAgain": 6953,
      "Ġheigh": 6954,
      "Ġhedge": 6955,
      "stone": 6956,
      "strong": 6957,
      "strel": 6958,
      "owick": 6959,
      "ank": 6960,
      "anish": 6961,
      "oming": 6962,
      "omenes": 6963,
      "Ġgaz": 6964,
      "Ġgeld": 6965,
      "Ġgulf": 6966,
      "ato": 6967,
      "atient": 6968,
      "Ġbeet": 6969,
      "Ġbeads": 6970,
      "ĠWorse": 6971,
      "ĠWales": 6972,
      "seth": 6973,
      "seem": 6974,
      "Ġinve": 6975,
      "Ġinherit": 6976,
      "Ġhaw": 6977,
      "Ġhall": 6978,
      "Ġhalt": 6979,
      "cel": 6980,
      "etition": 6981,
      "ediment": 6982,
      "ĠBad": 6983,
      "ĠBON": 6984,
      "ĠBack": 6985,
      "Ġmellow": 6986,
      "imo": 6987,
      "ims": 6988,
      "ĠSin": 6989,
      "ĠSUR": 6990,
      "Ġnotes": 6991,
      "Ġnotorious": 6992,
      "Ġnotwith": 6993,
      "chool": 6994,
      "ĠHost": 6995,
      "ĠHigh": 6996,
      "ĠHerc": 6997,
      "ĠHoly": 6998,
      "ĠMasters": 6999,
      "Ġforn": 7000,
      "Ġforces": 7001,
      "key": 7002,
      "ĠCy": 7003,
      "ĠCher": 7004,
      "ĠCold": 7005,
      "ĠCarry": 7006,
      "ĠCursed": 7007,
      "Ġweed": 7008,
      "Ġweal": 7009,
      "illed": 7010,
      "Ġelo": 7011,
      "Ġebb": 7012,
      "herited": 7013,
      "entious": 7014,
      "ado": 7015,
      "adem": 7016,
      "adise": 7017,
      "rion": 7018,
      "rial": 7019,
      "rief": 7020,
      "rieve": 7021,
      "ĠOpen": 7022,
      "ĠObey": 7023,
      "Ġstu": 7024,
      "Ġstem": 7025,
      "Ġstaff": 7026,
      "ĠLam": 7027,
      "ĠLod": 7028,
      "ĠLeft": 7029,
      "ĠFill": 7030,
      "ĠFly": 7031,
      "ĠFif": 7032,
      "ĠFran": 7033,
      "ĠGold": 7034,
      "ĠGrand": 7035,
      "ĠGroom": 7036,
      "ghts": 7037,
      "Ġren": 7038,
      "Ġrent": 7039,
      "Ġrender": 7040,
      "idd": 7041,
      "iding": 7042,
      "rails": 7043,
      "Ġliar": 7044,
      "Ġliqu": 7045,
      "asy": 7046,
      "asing": 7047,
      "asures": 7048,
      "ĠPho": 7049,
      "ĠPres": 7050,
      "ĠPatri": 7051,
      "ĠPAGE": 7052,
      "ĠPhaeth": 7053,
      "urvy": 7054,
      "alion": 7055,
      "Ġsolic": 7056,
      "Ġassemb": 7057,
      "Ġdeceive": 7058,
      "Ġdefect": 7059,
      "ĠRo": 7060,
      "ĠRed": 7061,
      "ĠRest": 7062,
      "ĠRun": 7063,
      "ĠRenown": 7064,
      "rop": 7065,
      "ĠNATH": 7066,
      "aining": 7067,
      "verse": 7068,
      "Ġdoct": 7069,
      "Ġdoves": 7070,
      "Ġdoors": 7071,
      "Ġnoses": 7072,
      "ĠEnd": 7073,
      "ĠEvery": 7074,
      "ĠEMILIA": 7075,
      "ĠDef": 7076,
      "ĠDION": 7077,
      "ĠDirect": 7078,
      "ĠDoricles": 7079,
      "Ġsear": 7080,
      "Ġsequ": 7081,
      "Ġallay": 7082,
      "Ġallies": 7083,
      "Ġsued": 7084,
      "Ġsung": 7085,
      "Ġsunder": 7086,
      "Ġsugg": 7087,
      "Ġsugar": 7088,
      "Ġherbs": 7089,
      "Ġansw": 7090,
      "Ġantic": 7091,
      "Ġloins": 7092,
      "Ġlocks": 7093,
      "terate": 7094,
      "Ġsped": 7095,
      "Ġspilt": 7096,
      "Ġspices": 7097,
      "Ġspiders": 7098,
      "Ġfaction": 7099,
      "thw": 7100,
      "thing": 7101,
      "throw": 7102,
      "Ġnegl": 7103,
      "Ġknit": 7104,
      "Ġvi": 7105,
      "Ġvine": 7106,
      "Ġvig": 7107,
      "Ġshout": 7108,
      "Ġshower": 7109,
      "antime": 7110,
      "quet": 7111,
      "athom": 7112,
      "Ġmum": 7113,
      "Ġmuff": 7114,
      "Ġwhet": 7115,
      "Ġwheel": 7116,
      "ĠWhate": 7117,
      "Ġamend": 7118,
      "icial": 7119,
      "iel": 7120,
      "Ġblister": 7121,
      "Ġblade": 7122,
      "ivered": 7123,
      "venient": 7124,
      "ĠForth": 7125,
      "ĠForbear": 7126,
      "ĠForbid": 7127,
      "Ġwasp": 7128,
      "olar": 7129,
      "olve": 7130,
      "ĠHector": 7131,
      "Ġhatch": 7132,
      "ANIEL": 7133,
      "Ġknowest": 7134,
      "Ġcann": 7135,
      "Ġcanker": 7136,
      "Ġsayest": 7137,
      "ressed": 7138,
      "feits": 7139,
      "Ġorphan": 7140,
      "ppet": 7141,
      "pped": 7142,
      "Ġusing": 7143,
      "Ġusure": 7144,
      "allel": 7145,
      "Ġarch": 7146,
      "Ġargu": 7147,
      "Ġarbit": 7148,
      "Ġunth": 7149,
      "Ġunple": 7150,
      "Ġunrest": 7151,
      "Ġworshi": 7152,
      "ĠAss": 7153,
      "Ġquake": 7154,
      "Ġquaint": 7155,
      "elting": 7156,
      "Ġjade": 7157,
      "Ġgraft": 7158,
      "Ġmusty": 7159,
      "Ġhole": 7160,
      "cip": 7161,
      "cially": 7162,
      "Ġprocure": 7163,
      "Ġmadly": 7164,
      "Ġmadest": 7165,
      "Ġmadman": 7166,
      "Ġplate": 7167,
      "ums": 7168,
      "umes": 7169,
      "umps": 7170,
      "uments": 7171,
      "umny": 7172,
      "pecially": 7173,
      "ĠJer": 7174,
      "ĠJun": 7175,
      "ĠJust": 7176,
      "ĠJud": 7177,
      "Ġdisting": 7178,
      "Ġdissemble": 7179,
      "Ġdisorder": 7180,
      "Ġpox": 7181,
      "Ġpocket": 7182,
      "fulness": 7183,
      "ptory": 7184,
      "Ġtruer": 7185,
      "ĠThoughts": 7186,
      "Ġmarr": 7187,
      "Ġmarble": 7188,
      "Ġmariners": 7189,
      "Ġrats": 7190,
      "Ġrites": 7191,
      "Ġrising": 7192,
      "ĠIns": 7193,
      "ĠInfer": 7194,
      "Ġaloof": 7195,
      "Ġalto": 7196,
      "Ġheap": 7197,
      "Ġhears": 7198,
      "echer": 7199,
      "eches": 7200,
      "Ġabst": 7201,
      "Ġabod": 7202,
      "Ġexclaim": 7203,
      "Ġexact": 7204,
      "Ġexperience": 7205,
      "Ġfold": 7206,
      "Ġfoil": 7207,
      "Ġearl": 7208,
      "Ġearldom": 7209,
      "Ġrode": 7210,
      "Ġrocks": 7211,
      "Ġlooker": 7212,
      "erving": 7213,
      "ervation": 7214,
      "ĠUrge": 7215,
      "Ġridd": 7216,
      "Ġripen": 7217,
      "Ġrivers": 7218,
      "tised": 7219,
      "Ġwarn": 7220,
      "Ġwarning": 7221,
      "Ġflame": 7222,
      "Ġslack": 7223,
      "Ġbreeding": 7224,
      "sses": 7225,
      "Ġafoot": 7226,
      "apable": 7227,
      "izab": 7228,
      "Ġrages": 7229,
      "Ġrasc": 7230,
      "Ġraging": 7231,
      "Ġraiment": 7232,
      "Ġprec": 7233,
      "Ġpreced": 7234,
      "Ġprerog": 7235,
      "Ġprays": 7236,
      "Ġclap": 7237,
      "Ġsweets": 7238,
      "Ġperf": 7239,
      "Ġpledge": 7240,
      "Ġnobleman": 7241,
      "Ġwrangling": 7242,
      "Ġtrades": 7243,
      "Ġwayward": 7244,
      "Ġheadstrong": 7245,
      "aws": 7246,
      "Ġpreserved": 7247,
      "Ġscour": 7248,
      "Ġscru": 7249,
      "ĠAny": 7250,
      "Ġqueens": 7251,
      "lip": 7252,
      "Ġmoan": 7253,
      "Ġchival": 7254,
      "Ġcontri": 7255,
      "Ġapply": 7256,
      "Ġappell": 7257,
      "Ġappoint": 7258,
      "Ġbegot": 7259,
      "Ġarmed": 7260,
      "Ġimmediate": 7261,
      "Ġmale": 7262,
      "Ġreplied": 7263,
      "Ġreproof": 7264,
      "Ġrepossess": 7265,
      "Ġrepetition": 7266,
      "love": 7267,
      "Ġlongest": 7268,
      "Ġintended": 7269,
      "Ġconspir": 7270,
      "Ġconsorted": 7271,
      "Ġconsumed": 7272,
      "Ġperem": 7273,
      "ffer": 7274,
      "Ġlevy": 7275,
      "Ġentire": 7276,
      "Ġentrails": 7277,
      "Ġlieutenant": 7278,
      "chelor": 7279,
      "Ġtried": 7280,
      "ĠProf": 7281,
      "Ġresort": 7282,
      "Ġrescue": 7283,
      "Ġcomposition": 7284,
      "Ġprivy": 7285,
      "Ġchaf": 7286,
      "Ġchap": 7287,
      "Ġchains": 7288,
      "Ġcounted": 7289,
      "fts": 7290,
      "Ġpeaceful": 7291,
      "Ġelsewhe": 7292,
      "ailing": 7293,
      "Ġbackward": 7294,
      "Ġcoz": 7295,
      "Ġcoal": 7296,
      "Ġcoals": 7297,
      "Ġneedle": 7298,
      "Ġneedless": 7299,
      "Ġladyship": 7300,
      "Ġbraved": 7301,
      "Ġbrass": 7302,
      "Ġhighway": 7303,
      "Ġhusbands": 7304,
      "Ġchanges": 7305,
      "Ġminded": 7306,
      "Ġbanquet": 7307,
      "Ġchest": 7308,
      "Ġshowers": 7309,
      "Ġconfer": 7310,
      "Ġconfines": 7311,
      "Ġconfusion": 7312,
      "Ġbribe": 7313,
      "Ġcaused": 7314,
      "Ġimpart": 7315,
      "Ġimpud": 7316,
      "Ġimpression": 7317,
      "Ġimpatience": 7318,
      "Ġimpatient": 7319,
      "Ġimpediment": 7320,
      "Ġmistaking": 7321,
      "Ġglories": 7322,
      "Ġbodes": 7323,
      "Ġlightly": 7324,
      "Ġlightness": 7325,
      "Ġbeseem": 7326,
      "Ġnatures": 7327,
      "Ġpardons": 7328,
      "Ġunderne": 7329,
      "Ġundergo": 7330,
      "Ġdevice": 7331,
      "Ġhappier": 7332,
      "Ġkilled": 7333,
      "Ġfollowing": 7334,
      "Ġbush": 7335,
      "Ġfarm": 7336,
      "Ġsunshine": 7337,
      "Ġobst": 7338,
      "ival": 7339,
      "Ġturned": 7340,
      "Ġstreet": 7341,
      "Ġstream": 7342,
      "Ġcomforts": 7343,
      "Ġcomfortable": 7344,
      "Ġsleeps": 7345,
      "Ġsleepy": 7346,
      "itories": 7347,
      "ĠHerald": 7348,
      "Ġattent": 7349,
      "Ġfalsely": 7350,
      "Ġmatters": 7351,
      "Ġbox": 7352,
      "Ġboon": 7353,
      "Ġfights": 7354,
      "Ġfighting": 7355,
      "holds": 7356,
      "Ġprisoners": 7357,
      "Ġmerciful": 7358,
      "Ġdangers": 7359,
      "mph": 7360,
      "mpet": 7361,
      "Ġassault": 7362,
      "Ġdiscords": 7363,
      "Ġdischarged": 7364,
      "Ġstrait": 7365,
      "Ġcommanding": 7366,
      "Ġdreamt": 7367,
      "enerate": 7368,
      "kenbury": 7369,
      "Ġdared": 7370,
      "Ġgetting": 7371,
      "Ġsisterhood": 7372,
      "Ġfouler": 7373,
      "versy": 7374,
      "Ġbreaking": 7375,
      "Ġawry": 7376,
      "Ġmerrim": 7377,
      "Ġdenial": 7378,
      "Ġsuppose": 7379,
      "Ġsuppli": 7380,
      "Ġrequires": 7381,
      "Ġrequired": 7382,
      "Ġbeating": 7383,
      "Ġvalue": 7384,
      "Ġtenderly": 7385,
      "Ġfootman": 7386,
      "Ġwoeful": 7387,
      "Ġreturned": 7388,
      "upon": 7389,
      "Ġdeeper": 7390,
      "Ġdeeply": 7391,
      "blown": 7392,
      "Ġchop": 7393,
      "Ġcoldly": 7394,
      "Ġnursed": 7395,
      "Ġrecover": 7396,
      "azon": 7397,
      "Ġsuffice": 7398,
      "Ġplucks": 7399,
      "Ġairy": 7400,
      "Ġsilken": 7401,
      "Ġjocund": 7402,
      "Ġpastime": 7403,
      "shining": 7404,
      "Ġfasting": 7405,
      "Ġstrongly": 7406,
      "xton": 7407,
      "Ġfitted": 7408,
      "Ġpossessed": 7409,
      "Ġinconstant": 7410,
      "Ġinfring": 7411,
      "Ġissued": 7412,
      "Ġprofan": 7413,
      "Ġprofits": 7414,
      "plish": 7415,
      "voke": 7416,
      "voided": 7417,
      "Ġdelivered": 7418,
      "Ġforet": 7419,
      "Ġforest": 7420,
      "Ġdivided": 7421,
      "Ġdivines": 7422,
      "Ġdivision": 7423,
      "Ġposterity": 7424,
      "Ġmocking": 7425,
      "Ġmockery": 7426,
      "Ġresolute": 7427,
      "Ġcounsels": 7428,
      "Ġterrible": 7429,
      "Ġminstrel": 7430,
      "Ġtribune": 7431,
      "Ġtribute": 7432,
      "Ġwhipt": 7433,
      "Ġharmless": 7434,
      "Ġdraws": 7435,
      "Twill": 7436,
      "Ġagreed": 7437,
      "Ġdistressed": 7438,
      "Ġactor": 7439,
      "Ġstirs": 7440,
      "Ġstirring": 7441,
      "Ġaffright": 7442,
      "Ġsigns": 7443,
      "Ġbreathes": 7444,
      "Ġclosely": 7445,
      "Ġskulls": 7446,
      "Ġforgiveness": 7447,
      "Ġwisest": 7448,
      "ĠBeshrew": 7449,
      "Ġregiment": 7450,
      "Ġpoisonous": 7451,
      "Ġcheerfully": 7452,
      "Ġtax": 7453,
      "Ġdireful": 7454,
      "Ġembra": 7455,
      "Ġembraced": 7456,
      "Ġpays": 7457,
      "Ġsuccor": 7458,
      "Ġmalign": 7459,
      "Ġdarken": 7460,
      "ĠArm": 7461,
      "ĠArise": 7462,
      "Ġblessings": 7463,
      "Ġbleed": 7464,
      "Ġbleeds": 7465,
      "Ġpenny": 7466,
      "Ġinterchange": 7467,
      "Ġbroad": 7468,
      "Ġcapital": 7469,
      "Ġcaparison": 7470,
      "Ġhurried": 7471,
      "Ġchamberlain": 7472,
      "Ġcreated": 7473,
      "Ġcreatures": 7474,
      "Ġcowardice": 7475,
      "Ġlimits": 7476,
      "Ġpuff": 7477,
      "Ġpuppet": 7478,
      "Ġrebel": 7479,
      "Ġrebuke": 7480,
      "Ġscorns": 7481,
      "Ġwitnesses": 7482,
      "Ġinsulting": 7483,
      "ĠMercy": 7484,
      "Ġscarlet": 7485,
      "ĠChristopher": 7486,
      "Ġidly": 7487,
      "Ġhideous": 7488,
      "Ġbeastly": 7489,
      "ĠGregory": 7490,
      "ĠJoin": 7491,
      "Ġfills": 7492,
      "Ġstrumpet": 7493,
      "Ġinjurious": 7494,
      "Ġinjuries": 7495,
      "Ġfamish": 7496,
      "ĠTwenty": 7497,
      "ĠBelike": 7498,
      "Ġsolely": 7499,
      "Ġgovernor": 7500,
      "Ġmutiny": 7501,
      "Ġgrandfather": 7502,
      "Ġdrunkard": 7503,
      "Ġscholar": 7504,
      "Ġlustful": 7505,
      "Ġthreats": 7506,
      "Ġindiffe": 7507,
      "Ġindirect": 7508,
      "ĠMeasure": 7509,
      "ĠMeantime": 7510,
      "ĠEnough": 7511,
      "Ġsafer": 7512,
      "Ġpursued": 7513,
      "Ġmounting": 7514,
      "Ġfeat": 7515,
      "Ġcaptive": 7516,
      "ĠConsider": 7517,
      "ĠVerily": 7518,
      "Ġfollies": 7519,
      "Ġcontrad": 7520,
      "Ġremedies": 7521,
      "Ġunderstanding": 7522,
      "Ġgentler": 7523,
      "ĠFlore": 7524,
      "ĠFloriz": 7525,
      "Ġdegrees": 7526,
      "Ġdemands": 7527,
      "ĠNeighb": 7528,
      "Ġgreetings": 7529,
      "Ġextremest": 7530,
      "Ġtriumphs": 7531,
      "Ġscarcely": 7532,
      "piring": 7533,
      "Ġbachelor": 7534,
      "Ġfarthest": 7535,
      "Ġfaintly": 7536,
      "Ġdwells": 7537,
      "Ġthroats": 7538,
      "Ġgait": 7539,
      "Ġgaol": 7540,
      "Ġgape": 7541,
      "Ġgaoler": 7542,
      "Ġchastity": 7543,
      "Ġchastisement": 7544,
      "Ġmiseries": 7545,
      "Ġconditions": 7546,
      "Ġhunger": 7547,
      "Ġfirmly": 7548,
      "Ġholid": 7549,
      "Ġbefal": 7550,
      "Ġbefits": 7551,
      "Ġinclination": 7552,
      "Ġrelig": 7553,
      "Ġunborn": 7554,
      "Ġunlawful": 7555,
      "Ġbootless": 7556,
      "Ġschoolmaster": 7557,
      "Ġfruitful": 7558,
      "Ġfeeding": 7559,
      "Ġstooping": 7560,
      "ĠLovel": 7561,
      "Ġnecessary": 7562,
      "Ġimportune": 7563,
      "Ġcreate": 7564,
      "Ġdecay": 7565,
      "Ġknightly": 7566,
      "Ġknighthood": 7567,
      "Ġshrink": 7568,
      "Ġshriek": 7569,
      "Ġfrighted": 7570,
      "Ġroundly": 7571,
      "Ġtreachery": 7572,
      "Ġassistance": 7573,
      "Ġdelights": 7574,
      "Ġutterance": 7575,
      "actors": 7576,
      "Ġlouder": 7577,
      "ĠShame": 7578,
      "Ġstarve": 7579,
      "Ġambition": 7580,
      "Ġjealousies": 7581,
      "Ġpersuasion": 7582,
      "Ġerror": 7583,
      "Ġcalumny": 7584,
      "Ġphysician": 7585,
      "Ġbeware": 7586,
      "Ġweighty": 7587,
      "Ġsupreme": 7588,
      "Ġadmir": 7589,
      "Ġpenitence": 7590,
      "Ġsolemnity": 7591,
      "Ġwolves": 7592,
      "Ġwonders": 7593,
      "Ġbaseness": 7594,
      "Ġbudge": 7595,
      "Ġdiadem": 7596,
      "Ġrewards": 7597,
      "ĠRepent": 7598,
      "Ġcombat": 7599,
      "Ġpronounced": 7600,
      "Ġargos": 7601,
      "Ġtrembles": 7602,
      "Ġpublicly": 7603,
      "whelm": 7604,
      "Ġmillions": 7605,
      "Ġmagic": 7606,
      "Ġhazel": 7607,
      "Ġmerely": 7608,
      "ĠCalais": 7609,
      "ĠElizab": 7610,
      "Ġapprehens": 7611,
      "Ġgreyh": 7612,
      "Ġcholeric": 7613,
      "Ġthorns": 7614,
      "Ġgloves": 7615,
      "ĠBrakenbury": 7616,
      "ĠSeize": 7617,
      "Ġnobler": 7618,
      "Ġworthily": 7619,
      "Ġadvertised": 7620,
      "Ġperjury": 7621,
      "Ġwitchcra": 7622,
      "Ġbrawl": 7623,
      "Ġbrawling": 7624,
      "Ġcircumstances": 7625,
      "This": 7626,
      "glass": 7627,
      "Ġachieve": 7628,
      "Ġachieved": 7629,
      "Ġsyll": 7630,
      "Ġwinged": 7631,
      "Ġfunction": 7632,
      "Ġdifference": 7633,
      "Ġhorror": 7634,
      "ĠTarqu": 7635,
      "ĠSmile": 7636,
      "ĠSixth": 7637,
      "Ġforsake": 7638,
      "ĠCondemn": 7639,
      "Ġevents": 7640,
      "Ġreceives": 7641,
      "ĠDarest": 7642,
      "Ġvillany": 7643,
      "Ġadmitted": 7644,
      "Ġclimb": 7645,
      "Ġbeguile": 7646,
      "ĠAntiates": 7647,
      "gnant": 7648,
      "mongst": 7649,
      "Ġtimeless": 7650,
      "Ġwidows": 7651,
      "Ġnapkin": 7652,
      "ĠAffection": 7653,
      "ĠCleomenes": 7654,
      "Ġdebase": 7655,
      "Ġsuperfl": 7656,
      "Ġsplit": 7657,
      "ĠKnock": 7658,
      "Ġvolume": 7659,
      "Ġdisguised": 7660,
      "Ġscolding": 7661,
      "Ġcouncil": 7662,
      "Ġcouncils": 7663,
      "Ġcurtain": 7664,
      "ĠAmongst": 7665,
      "ĠBetween": 7666,
      "ĠBetwixt": 7667,
      "Ġbaggage": 7668,
      "Ġhomage": 7669,
      "Ġhigher": 7670,
      "ĠApothecary": 7671,
      "ĠWrite": 7672,
      "Ġhaughty": 7673,
      "ĠGreece": 7674,
      "ĠPercy": 7675,
      "Ġunfeigned": 7676,
      "Ġcontroversy": 7677,
      "Ġappeared": 7678,
      "Ġrestraint": 7679,
      "Ġbankrupt": 7680,
      "Ġdragon": 7681,
      "ĠAttend": 7682,
      "ĠDispatch": 7683,
      "Ġtransported": 7684,
      "Ġsaucy": 7685,
      "Ġmourning": 7686,
      "Ġcentre": 7687,
      "Ġpicture": 7688,
      "Ġsociety": 7689,
      "ĠEmilia": 7690,
      "ĠEvermore": 7691,
      "Ġanchor": 7692,
      "Ġshelter": 7693,
      "Ġragged": 7694,
      "Ġscape": 7695,
      "Ġimperial": 7696,
      "Ġrestored": 7697,
      "Ġlecture": 7698,
      "Ġsmiling": 7699,
      "Ġmerrily": 7700,
      "Ġinferior": 7701,
      "Ġdivorce": 7702,
      "ĠWelshmen": 7703,
      "Ġexpedition": 7704,
      "Ġtroublous": 7705,
      "Ġinsolence": 7706,
      "Ġconcluded": 7707,
      "Ġtestimony": 7708,
      "Ġreckoning": 7709,
      "ebus": 7710,
      "Ġsands": 7711,
      "Ġcordial": 7712,
      "Ġpestilence": 7713,
      "Ġpupil": 7714,
      "ĠTouching": 7715,
      "ĠHarp": 7716,
      "Ġugly": 7717,
      "ĠOverdone": 7718,
      "Ġashore": 7719,
      "Ġvulgar": 7720,
      "Ġvassal": 7721,
      "Ġamazement": 7722,
      "osterous": 7723,
      "Ġcanopy": 7724,
      "Ġplaints": 7725,
      "Ġdisobed": 7726,
      "Ġrancour": 7727,
      "Ġnightingale": 7728,
      "Ġwhistle": 7729,
      "Ġharlot": 7730,
      "Ġwelcomes": 7731,
      "Ġterritories": 7732,
      "Ġpuissant": 7733,
      "ĠAdvance": 7734,
      "Ġmedicine": 7735,
      "Ġacknowledge": 7736,
      "Gainst": 7737,
      "iquity": 7738,
      "Ġtonight": 7739,
      "Ġsinew": 7740,
      "Ġwestern": 7741,
      "Ġfestival": 7742,
      "Ġfemale": 7743,
      "Ġcuckold": 7744,
      "Ġlungs": 7745,
      "Ġobtain": 7746,
      "Ġprunes": 7747,
      "ĠBONA": 7748,
      "ĠSURREY": 7749,
      "Ġnotwithstanding": 7750,
      "ĠHercules": 7751,
      "Ġeloqu": 7752,
      "ĠLodowick": 7753,
      "ĠFifth": 7754,
      "ĠFrancis": 7755,
      "ĠGrandam": 7756,
      "ĠPhoebus": 7757,
      "ĠPatrician": 7758,
      "ĠPhaethon": 7759,
      "Ġsolicit": 7760,
      "ĠNATHANIEL": 7761,
      "Ġvineyard": 7762,
      "Ġaltogether": 7763,
      "Ġrascals": 7764,
      "Ġprecedent": 7765,
      "Ġprerogative": 7766,
      "Ġperemptory": 7767,
      "Ġelsewhere": 7768,
      "Ġunderneath": 7769,
      "Ġmerriment": 7770,
      "Ġindifferent": 7771,
      "ĠFlorizel": 7772,
      "ĠElizabeth": 7773,
      "Ġapprehension": 7774,
      "Ġwitchcraft": 7775,
      "'!": 7776,
      "'--": 7777,
      "ALIS": 7778,
      "CI": 7779,
      "Fore": 7780,
      "Good": 7781,
      "Hear": 7782,
      "It": 7783,
      "LU": 7784,
      "My": 7785,
      "Soul": 7786,
      "Ty": 7787,
      "Tell": 7788,
      "We": 7789,
      "av": 7790,
      "aus": 7791,
      "avery": 7792,
      "aving": 7793,
      "acious": 7794,
      "bu": 7795,
      "bon": 7796,
      "bes": 7797,
      "bat": 7798,
      "bri": 7799,
      "bast": 7800,
      "book": 7801,
      "bel": 7802,
      "bred": 7803,
      "bham": 7804,
      "brain": 7805,
      "co": 7806,
      "cr": 7807,
      "can": 7808,
      "cas": 7809,
      "chard": 7810,
      "cats": 7811,
      "cued": 7812,
      "din": 7813,
      "dis": 7814,
      "dent": 7815,
      "dra": 7816,
      "dur": 7817,
      "dro": 7818,
      "dict": 7819,
      "door": 7820,
      "ele": 7821,
      "ech": 7822,
      "eress": 7823,
      "eases": 7824,
      "fly": 7825,
      "fend": 7826,
      "fty": 7827,
      "fix": 7828,
      "favour": 7829,
      "gom": 7830,
      "gher": 7831,
      "gone": 7832,
      "gress": 7833,
      "gia": 7834,
      "gging": 7835,
      "hill": 7836,
      "hra": 7837,
      "hoop": 7838,
      "ias": 7839,
      "ige": 7840,
      "iod": 7841,
      "iber": 7842,
      "iable": 7843,
      "iction": 7844,
      "iby": 7845,
      "journ": 7846,
      "lord": 7847,
      "las": 7848,
      "lore": 7849,
      "lous": 7850,
      "lves": 7851,
      "lorn": 7852,
      "lings": 7853,
      "lause": 7854,
      "my": 7855,
      "min": 7856,
      "mast": 7857,
      "mind": 7858,
      "mak": 7859,
      "mary": 7860,
      "mony": 7861,
      "minous": 7862,
      "mission": 7863,
      "nit": 7864,
      "net": 7865,
      "nut": 7866,
      "nel": 7867,
      "oz": 7868,
      "oison": 7869,
      "pse": 7870,
      "pter": 7871,
      "pho": 7872,
      "pol": 7873,
      "peak": 7874,
      "pence": 7875,
      "pire": 7876,
      "press": 7877,
      "piece": 7878,
      "poses": 7879,
      "rings": 7880,
      "roop": 7881,
      "song": 7882,
      "sick": 7883,
      "sia": 7884,
      "sby": 7885,
      "spo": 7886,
      "school": 7887,
      "te": 7888,
      "ton": 7889,
      "test": 7890,
      "take": 7891,
      "tree": 7892,
      "tered": 7893,
      "tsey": 7894,
      "uity": 7895,
      "ubs": 7896,
      "vion": 7897,
      "vity": 7898,
      "wh": 7899,
      "ween": 7900,
      "wench": 7901,
      "worth": 7902,
      "warn": 7903,
      "women": 7904,
      "yally": 7905,
      "ymph": 7906,
      "zwater": 7907,
      "Ġtum": 7908,
      "Ġtire": 7909,
      "Ġtatter": 7910,
      "Ġtides": 7911,
      "Ġtunes": 7912,
      "Ġtales": 7913,
      "Ġteeming": 7914,
      "Ġtumbling": 7915,
      "hear": 7916,
      "Ġau": 7917,
      "Ġaqu": 7918,
      "Ġaust": 7919,
      "Ġaery": 7920,
      "Ġaches": 7921,
      "Ġsly": 7922,
      "Ġsurn": 7923,
      "Ġsongs": 7924,
      "Ġmot": 7925,
      "Ġmow": 7926,
      "Ġming": 7927,
      "Ġmart": 7928,
      "Ġmap": 7929,
      "Ġmass": 7930,
      "Ġmute": 7931,
      "Ġwra": 7932,
      "Ġware": 7933,
      "Ġwaning": 7934,
      "Ġwalks": 7935,
      "inet": 7936,
      "inance": 7937,
      "inable": 7938,
      "inite": 7939,
      "reef": 7940,
      "reach": 7941,
      "reement": 7942,
      "hast": 7943,
      "happ": 7944,
      "nders": 7945,
      "Ġbone": 7946,
      "Ġbau": 7947,
      "Ġbind": 7948,
      "Ġbate": 7949,
      "Ġbust": 7950,
      "Ġbide": 7951,
      "Ġbatter": 7952,
      "Ġbier": 7953,
      "Ġbale": 7954,
      "Ġbench": 7955,
      "Ġbash": 7956,
      "Ġbills": 7957,
      "isc": 7958,
      "isk": 7959,
      "isle": 7960,
      "Ġfen": 7961,
      "Ġfed": 7962,
      "Ġfut": 7963,
      "Ġfate": 7964,
      "Ġfence": 7965,
      "Ġfile": 7966,
      "Ġfester": 7967,
      "Ġfees": 7968,
      "Ġfowl": 7969,
      "Ġfickle": 7970,
      "Ġfathom": 7971,
      "ĠIrish": 7972,
      "erate": 7973,
      "erman": 7974,
      "eria": 7975,
      "erwhelm": 7976,
      "lla": 7977,
      "itan": 7978,
      "itche": 7979,
      "once": 7980,
      "onour": 7981,
      "Ġdun": 7982,
      "Ġdaint": 7983,
      "Ġdial": 7984,
      "Ġdastard": 7985,
      "Ġdaring": 7986,
      "Ġduteous": 7987,
      "Ġdainty": 7988,
      "Ġcy": 7989,
      "Ġcot": 7990,
      "Ġced": 7991,
      "Ġcri": 7992,
      "Ġcas": 7993,
      "Ġcert": 7994,
      "Ġcuff": 7995,
      "Ġcele": 7996,
      "Ġna": 7997,
      "Ġnea": 7998,
      "Ġnerves": 7999,
      "Ġnearer": 8000,
      "Ġniece": 8001,
      "Ġnuns": 8002,
      "Ġnymph": 8003,
      "Ġninet": 8004,
      "Ġlain": 8005,
      "Ġlame": 8006,
      "Ġlass": 8007,
      "Ġlaughter": 8008,
      "Ġlaz": 8009,
      "Ġlecher": 8010,
      "Ġyard": 8011,
      "Ġyew": 8012,
      "Ġyellow": 8013,
      "Ġthra": 8014,
      "Ġthrew": 8015,
      "Ġthorough": 8016,
      "Ġthreef": 8017,
      "arr": 8018,
      "arth": 8019,
      "arks": 8020,
      "arling": 8021,
      "arated": 8022,
      "Ġhook": 8023,
      "Ġhilt": 8024,
      "Ġhint": 8025,
      "Ġhounds": 8026,
      "Ġhills": 8027,
      "Ġox": 8028,
      "Ġost": 8029,
      "Ġoce": 8030,
      "Ġominous": 8031,
      "Ġtoss": 8032,
      "Ġtoys": 8033,
      "Ġphe": 8034,
      "Ġpir": 8035,
      "Ġpith": 8036,
      "Ġpoo": 8037,
      "Ġpul": 8038,
      "Ġpark": 8039,
      "Ġpens": 8040,
      "Ġpotion": 8041,
      "Ġpines": 8042,
      "Ġpals": 8043,
      "Ġpiled": 8044,
      "Ġportion": 8045,
      "ĠTr": 8046,
      "ĠTend": 8047,
      "ĠTong": 8048,
      "ĠTakes": 8049,
      "ĠTrem": 8050,
      "ĠTiber": 8051,
      "ĠAg": 8052,
      "Ġhen": 8053,
      "Ġhew": 8054,
      "Ġheal": 8055,
      "oting": 8056,
      "oted": 8057,
      "stood": 8058,
      "stool": 8059,
      "ange": 8060,
      "anous": 8061,
      "anks": 8062,
      "Ġgle": 8063,
      "Ġgay": 8064,
      "Ġgir": 8065,
      "Ġgear": 8066,
      "Ġgilt": 8067,
      "Ġgild": 8068,
      "Ġgorge": 8069,
      "Ġginger": 8070,
      "atin": 8071,
      "athan": 8072,
      "atory": 8073,
      "atiate": 8074,
      "Ġbeho": 8075,
      "ĠWor": 8076,
      "ĠWent": 8077,
      "Ġinhabit": 8078,
      "Ġhab": 8079,
      "Ġhaven": 8080,
      "ceives": 8081,
      "lex": 8082,
      "leven": 8083,
      "lehill": 8084,
      "ldren": 8085,
      "uto": 8086,
      "utus": 8087,
      "utches": 8088,
      "ĠBore": 8089,
      "ĠBea": 8090,
      "ĠBreat": 8091,
      "ĠBase": 8092,
      "ĠBret": 8093,
      "ĠBrist": 8094,
      "ĠBrand": 8095,
      "ĠBanish": 8096,
      "ĠBLU": 8097,
      "imple": 8098,
      "ĠSent": 8099,
      "ĠSad": 8100,
      "ĠSel": 8101,
      "ĠSorrow": 8102,
      "ĠSland": 8103,
      "ĠSeal": 8104,
      "ĠSleep": 8105,
      "ĠSilence": 8106,
      "ĠSALIS": 8107,
      "cho": 8108,
      "child": 8109,
      "ĠHal": 8110,
      "ĠHard": 8111,
      "ĠHap": 8112,
      "ĠHallow": 8113,
      "ĠHung": 8114,
      "ĠMeet": 8115,
      "ĠMab": 8116,
      "ĠMount": 8117,
      "ĠMere": 8118,
      "Ġforms": 8119,
      "Ġforlorn": 8120,
      "keep": 8121,
      "ĠCot": 8122,
      "ĠCut": 8123,
      "ĠCro": 8124,
      "ĠChi": 8125,
      "ĠCare": 8126,
      "ĠCarl": 8127,
      "Ġweb": 8128,
      "ille": 8129,
      "Ġeg": 8130,
      "Ġel": 8131,
      "Ġew": 8132,
      "Ġegg": 8133,
      "enting": 8134,
      "ently": 8135,
      "rian": 8136,
      "ribe": 8137,
      "ĠOpp": 8138,
      "Ġsty": 8139,
      "Ġstart": 8140,
      "Ġstall": 8141,
      "Ġstage": 8142,
      "Ġstuck": 8143,
      "Ġstint": 8144,
      "Ġstew": 8145,
      "Ġstray": 8146,
      "Ġsteter": 8147,
      "Ġstring": 8148,
      "Ġstarts": 8149,
      "Ġstrat": 8150,
      "Ġkern": 8151,
      "Ġkenn": 8152,
      "Ġkitche": 8153,
      "ĠLad": 8154,
      "ĠLess": 8155,
      "ĠLast": 8156,
      "ĠLuke": 8157,
      "ĠLittle": 8158,
      "ĠLud": 8159,
      "ĠLift": 8160,
      "ĠLives": 8161,
      "ĠLatin": 8162,
      "ĠFer": 8163,
      "ĠFar": 8164,
      "ĠFound": 8165,
      "ĠFRAN": 8166,
      "ĠFool": 8167,
      "ĠFellow": 8168,
      "ĠGall": 8169,
      "ĠGirl": 8170,
      "ĠGiven": 8171,
      "Ġrevers": 8172,
      "Ġrelish": 8173,
      "Ġrelease": 8174,
      "Ġrevell": 8175,
      "Ġrehear": 8176,
      "raign": 8177,
      "lysses": 8178,
      "Ġliars": 8179,
      "ashy": 8180,
      "asci": 8181,
      "asite": 8182,
      "ĠPe": 8183,
      "ĠPit": 8184,
      "ĠPhi": 8185,
      "ĠPil": 8186,
      "ĠPale": 8187,
      "urity": 8188,
      "urps": 8189,
      "urbs": 8190,
      "urope": 8191,
      "alo": 8192,
      "alty": 8193,
      "Ġsoar": 8194,
      "Ġsober": 8195,
      "Ġsolace": 8196,
      "Ġascend": 8197,
      "Ġaspiring": 8198,
      "ĠRus": 8199,
      "ĠRag": 8200,
      "ĠRef": 8201,
      "ĠRoss": 8202,
      "ĠNear": 8203,
      "ĠNight": 8204,
      "ĠNine": 8205,
      "ĠNathan": 8206,
      "ARL": 8207,
      "vering": 8208,
      "ĠYonder": 8209,
      "Ġshamed": 8210,
      "Ġdol": 8211,
      "Ġdoit": 8212,
      "Ġdoings": 8213,
      "Ġnov": 8214,
      "ami": 8215,
      "ĠExton": 8216,
      "ĠEurope": 8217,
      "ĠEARL": 8218,
      "ĠDou": 8219,
      "ĠDre": 8220,
      "ĠDion": 8221,
      "ĠDight": 8222,
      "ĠDie": 8223,
      "ĠDick": 8224,
      "ĠDeep": 8225,
      "ĠDukes": 8226,
      "usc": 8227,
      "using": 8228,
      "usale": 8229,
      "usual": 8230,
      "Ġsex": 8231,
      "Ġsevent": 8232,
      "ifter": 8233,
      "geon": 8234,
      "geal": 8235,
      "ĠThither": 8236,
      "ĠThrong": 8237,
      "Ġsues": 8238,
      "Ġsulp": 8239,
      "ĠTold": 8240,
      "ĠTogether": 8241,
      "Ġherds": 8242,
      "rung": 8243,
      "ruised": 8244,
      "Ġant": 8245,
      "Ġangu": 8246,
      "ternal": 8247,
      "arded": 8248,
      "hance": 8249,
      "Ġspell": 8250,
      "Ġspear": 8251,
      "Ġspurn": 8252,
      "Ġspace": 8253,
      "Ġsparing": 8254,
      "ellows": 8255,
      "Ġfails": 8256,
      "Ġfabric": 8257,
      "this": 8258,
      "thren": 8259,
      "ilver": 8260,
      "Ġknell": 8261,
      "Ġknack": 8262,
      "Ġknavery": 8263,
      "Ġvest": 8264,
      "Ġvio": 8265,
      "Ġvap": 8266,
      "Ġvices": 8267,
      "cts": 8268,
      "Ġwhate": 8269,
      "Ġshine": 8270,
      "Ġshouts": 8271,
      "ulation": 8272,
      "antial": 8273,
      "Ġupper": 8274,
      "Ġgoodman": 8275,
      "quis": 8276,
      "qual": 8277,
      "quess": 8278,
      "quaint": 8279,
      "quiet": 8280,
      "Ġmuse": 8281,
      "Ġpry": 8282,
      "Ġmanly": 8283,
      "Ġmanacles": 8284,
      "Ġmankind": 8285,
      "Ġmangled": 8286,
      "Ġatone": 8287,
      "Ġwheres": 8288,
      "Ġwheels": 8289,
      "Ġcony": 8290,
      "Ġconver": 8291,
      "Ġconvers": 8292,
      "Ġconvent": 8293,
      "Ġamity": 8294,
      "Ġamended": 8295,
      "endom": 8296,
      "icing": 8297,
      "ican": 8298,
      "icide": 8299,
      "icester": 8300,
      "ĠVar": 8301,
      "bled": 8302,
      "Ġshepher": 8303,
      "Ġsheets": 8304,
      "Ġblots": 8305,
      "Ġblasp": 8306,
      "vener": 8307,
      "Ġgoest": 8308,
      "ĠForget": 8309,
      "ĠForrest": 8310,
      "ĠForgive": 8311,
      "empl": 8312,
      "eminate": 8313,
      "areth": 8314,
      "oln": 8315,
      "olour": 8316,
      "ĠHelen": 8317,
      "Ġhatches": 8318,
      "ersha": 8319,
      "ershire": 8320,
      "resseth": 8321,
      "Ġswim": 8322,
      "Ġswine": 8323,
      "Ġswifter": 8324,
      "Ġorchard": 8325,
      "Ġbrine": 8326,
      "Ġbrittle": 8327,
      "pper": 8328,
      "Ġusage": 8329,
      "odity": 8330,
      "Ġunity": 8331,
      "Ġunman": 8332,
      "Ġunaw": 8333,
      "Ġunlo": 8334,
      "Ġunsc": 8335,
      "Ġunivers": 8336,
      "Ġunusual": 8337,
      "igation": 8338,
      "hyme": 8339,
      "Ġquest": 8340,
      "eliver": 8341,
      "ĠWhence": 8342,
      "Ġjar": 8343,
      "Ġjump": 8344,
      "Ġhoped": 8345,
      "cible": 8346,
      "cipl": 8347,
      "Ġprover": 8348,
      "Ġproduce": 8349,
      "Ġproffer": 8350,
      "Ġsails": 8351,
      "Ġplent": 8352,
      "umn": 8353,
      "people": 8354,
      "ĠJames": 8355,
      "ĠJule": 8356,
      "Ġdislike": 8357,
      "Ġdishes": 8358,
      "Ġdisposed": 8359,
      "Ġdisloy": 8360,
      "Ġdiseases": 8361,
      "Ġdiscipl": 8362,
      "Ġenroll": 8363,
      "Ġenjoin": 8364,
      "Ġenfranch": 8365,
      "Ġpoll": 8366,
      "Ġoutst": 8367,
      "Ġhowl": 8368,
      "pted": 8369,
      "pture": 8370,
      "unch": 8371,
      "Ġtrudge": 8372,
      "Ġhandle": 8373,
      "Ġsomebod": 8374,
      "ĠWeep": 8375,
      "Ġmarquess": 8376,
      "Ġrood": 8377,
      "Ġrings": 8378,
      "Ġrates": 8379,
      "ĠInf": 8380,
      "acket": 8381,
      "Ġhearth": 8382,
      "Ġability": 8383,
      "Ġabuses": 8384,
      "Ġexha": 8385,
      "Ġexternal": 8386,
      "Ġfoaming": 8387,
      "Ġdaylight": 8388,
      "Ġrod": 8389,
      "Ġroad": 8390,
      "Ġrope": 8391,
      "Ġrogues": 8392,
      "Ġroyally": 8393,
      "Ġtellus": 8394,
      "Ġwhereupon": 8395,
      "agine": 8396,
      "agate": 8397,
      "agems": 8398,
      "usters": 8399,
      "ĠUlysses": 8400,
      "Ġrip": 8401,
      "Ġribb": 8402,
      "aved": 8403,
      "Ġarticles": 8404,
      "Ġarticle": 8405,
      "Ġwary": 8406,
      "Ġflour": 8407,
      "Ġflag": 8408,
      "Ġfliers": 8409,
      "Ġflayed": 8410,
      "ĠMariner": 8411,
      "Ġslide": 8412,
      "Ġslanders": 8413,
      "Ġfearless": 8414,
      "Ġgreatly": 8415,
      "ĠBeg": 8416,
      "bery": 8417,
      "bering": 8418,
      "Ġbrethren": 8419,
      "Ġfairies": 8420,
      "ccess": 8421,
      "ccustom": 8422,
      "apes": 8423,
      "ĠYourself": 8424,
      "izard": 8425,
      "oughby": 8426,
      "Ġcalling": 8427,
      "Ġpartake": 8428,
      "Ġpartial": 8429,
      "Ġraw": 8430,
      "Ġrarest": 8431,
      "Ġraze": 8432,
      "Ġrabble": 8433,
      "Ġadul": 8434,
      "Ġadorn": 8435,
      "Ġadult": 8436,
      "Ġadder": 8437,
      "Ġcommit": 8438,
      "Ġcommodity": 8439,
      "Ġpregnant": 8440,
      "Ġclothe": 8441,
      "Ġsweeten": 8442,
      "Ġperused": 8443,
      "Ġperchance": 8444,
      "Ġperadventure": 8445,
      "Ġperiod": 8446,
      "Ġpresum": 8447,
      "Ġpresses": 8448,
      "Ġprescri": 8449,
      "Ġscra": 8450,
      "Ġscare": 8451,
      "Ġscars": 8452,
      "Ġscouts": 8453,
      "Ġnightly": 8454,
      "assad": 8455,
      "liction": 8456,
      "livion": 8457,
      "Ġmoans": 8458,
      "Ġmolehill": 8459,
      "Ġapplause": 8460,
      "Ġkeen": 8461,
      "Ġremiss": 8462,
      "Ġremote": 8463,
      "pery": 8464,
      "peror": 8465,
      "peration": 8466,
      "abb": 8467,
      "abour": 8468,
      "ilty": 8469,
      "Ġrepaid": 8470,
      "Ġreprieve": 8471,
      "Ġlongs": 8472,
      "Ġlonging": 8473,
      "Ġintends": 8474,
      "Ġinterest": 8475,
      "Ġlively": 8476,
      "Ġconsort": 8477,
      "Ġconsume": 8478,
      "Ġconserves": 8479,
      "Ġmightily": 8480,
      "ĠSirs": 8481,
      "Ġrub": 8482,
      "Ġresteth": 8483,
      "Ġrestrain": 8484,
      "Ġcrowned": 8485,
      "Ġpeck": 8486,
      "Ġpeasant": 8487,
      "ffic": 8488,
      "Ġcourses": 8489,
      "Ġlevied": 8490,
      "Ġenters": 8491,
      "Ġharms": 8492,
      "Ġharder": 8493,
      "Ġtongueless": 8494,
      "ĠStir": 8495,
      "ĠStep": 8496,
      "ĠStop": 8497,
      "ĠStaf": 8498,
      "ĠProdig": 8499,
      "Ġkeeping": 8500,
      "Ġslender": 8501,
      "Ġresp": 8502,
      "Ġreserved": 8503,
      "Ġresidence": 8504,
      "forward": 8505,
      "iously": 8506,
      "Ġcompell": 8507,
      "Ġhourly": 8508,
      "Ġendow": 8509,
      "Ġendea": 8510,
      "retion": 8511,
      "Ġpricks": 8512,
      "ieldy": 8513,
      "Ġpurged": 8514,
      "Ġpurses": 8515,
      "Ġpurposes": 8516,
      "Ġchain": 8517,
      "Ġchaff": 8518,
      "Ġsuborn": 8519,
      "Ġsubsc": 8520,
      "Ġsubmission": 8521,
      "Ġsuburbs": 8522,
      "Ġsmack": 8523,
      "Ġsmiled": 8524,
      "Ġsmelt": 8525,
      "ĠWilloughby": 8526,
      "asonable": 8527,
      "ected": 8528,
      "Ġtraged": 8529,
      "Ġtragic": 8530,
      "Ġtraffic": 8531,
      "Ġcoats": 8532,
      "Ġhush": 8533,
      "Ġtreble": 8534,
      "Ġneedy": 8535,
      "Ġbragg": 8536,
      "Ġbrazen": 8537,
      "Ġhelms": 8538,
      "Ġseemed": 8539,
      "Ġseemeth": 8540,
      "Ġrightly": 8541,
      "Ġcheers": 8542,
      "Ġcharms": 8543,
      "Ġcharters": 8544,
      "Ġcharitable": 8545,
      "Ġconfined": 8546,
      "Ġhandsome": 8547,
      "Ġimpre": 8548,
      "Ġimpose": 8549,
      "Ġimposition": 8550,
      "Ġserving": 8551,
      "Ġmistook": 8552,
      "Ġglister": 8553,
      "Ġfortnight": 8554,
      "Ġfortunate": 8555,
      "Ġbringing": 8556,
      "Ġpasses": 8557,
      "Ġpleaseth": 8558,
      "Ġbeshrew": 8559,
      "Ġbesiege": 8560,
      "Ġthrong": 8561,
      "mbling": 8562,
      "Ġjustly": 8563,
      "Ġjustify": 8564,
      "Ġwrongfully": 8565,
      "Ġhappen": 8566,
      "Ġplaced": 8567,
      "ension": 8568,
      "Ġeyeb": 8569,
      "Ġhelping": 8570,
      "Ġlesson": 8571,
      "Ġbusied": 8572,
      "Ġfooling": 8573,
      "Ġchid": 8574,
      "Ġchides": 8575,
      "Ġchron": 8576,
      "Ġsuns": 8577,
      "Ġobdur": 8578,
      "Ġoblivion": 8579,
      "ĠUnb": 8580,
      "ĠUnc": 8581,
      "ĠUnw": 8582,
      "Ġcourts": 8583,
      "jects": 8584,
      "ĠAlone": 8585,
      "Ġstrip": 8586,
      "Ġstride": 8587,
      "Ġstripes": 8588,
      "Ġwomanish": 8589,
      "ivity": 8590,
      "overed": 8591,
      "Ġturning": 8592,
      "Ġstreak": 8593,
      "Ġtalked": 8594,
      "Ġhumane": 8595,
      "Ġoverheard": 8596,
      "Ġoverthrow": 8597,
      "Ġbelongs": 8598,
      "Ġibat": 8599,
      "Ġbuilt": 8600,
      "Ġburial": 8601,
      "Ġinstance": 8602,
      "Ġinstead": 8603,
      "Ġattach": 8604,
      "Ġplays": 8605,
      "ĠWouldst": 8606,
      "Ġwelkin": 8607,
      "Ġcountryman": 8608,
      "Ġdances": 8609,
      "Ġcurs": 8610,
      "Ġcurbs": 8611,
      "Ġsending": 8612,
      "Ġdoubted": 8613,
      "Ġdoubtless": 8614,
      "Ġwishing": 8615,
      "Ġreasonable": 8616,
      "Ġdiscred": 8617,
      "Ġdiscreet": 8618,
      "Ġdiscovery": 8619,
      "Ġdiscretion": 8620,
      "Ġstrain": 8621,
      "Ġbreaths": 8622,
      "Ġcommandment": 8623,
      "Ġgiant": 8624,
      "Ġstrang": 8625,
      "Ġsecurity": 8626,
      "Ġsenis": 8627,
      "Ġwinding": 8628,
      "Ġremembe": 8629,
      "ĠSub": 8630,
      "ĠSuff": 8631,
      "Ġswearing": 8632,
      "Ġtending": 8633,
      "Ġdepth": 8634,
      "Ġgreed": 8635,
      "Ġgreets": 8636,
      "Ġkissing": 8637,
      "Ġawe": 8638,
      "Ġawful": 8639,
      "Ġtemperate": 8640,
      "Ġsupple": 8641,
      "eyed": 8642,
      "Ġcarrion": 8643,
      "Ġrequite": 8644,
      "Ġrequital": 8645,
      "Ġspoils": 8646,
      "Ġlamp": 8647,
      "Ġmete": 8648,
      "Ġsoonest": 8649,
      "ĠJulius": 8650,
      "ĠSpoke": 8651,
      "Ġfooting": 8652,
      "Ġwarrants": 8653,
      "Ġsaddle": 8654,
      "ĠPlain": 8655,
      "ĠPlace": 8656,
      "ĠPluck": 8657,
      "ĠPlashy": 8658,
      "Ġreturns": 8659,
      "Ġmarrying": 8660,
      "Ġthroughly": 8661,
      "Ġchoke": 8662,
      "Ġcolder": 8663,
      "ĠMontgom": 8664,
      "Ġrecount": 8665,
      "Ġstrangely": 8666,
      "Ġasked": 8667,
      "Ġplucked": 8668,
      "ĠWhite": 8669,
      "Ġbats": 8670,
      "Ġdesired": 8671,
      "Ġentreated": 8672,
      "Ġinstructions": 8673,
      "Ġordain": 8674,
      "Ġordinance": 8675,
      "ĠSenators": 8676,
      "Ġvisor": 8677,
      "ixture": 8678,
      "Ġwearing": 8679,
      "ĠGlad": 8680,
      "Ġquicken": 8681,
      "Ġhardy": 8682,
      "Ġwooers": 8683,
      "Ġfitter": 8684,
      "Ġfitting": 8685,
      "Ġopening": 8686,
      "Ġbecame": 8687,
      "ĠSeeking": 8688,
      "Ġexecut": 8689,
      "Ġincur": 8690,
      "Ġincapable": 8691,
      "Ġinfirm": 8692,
      "Ġinfancy": 8693,
      "Ġinfamy": 8694,
      "Ġinflu": 8695,
      "Ġinfinite": 8696,
      "Ġissues": 8697,
      "Ġdelivery": 8698,
      "Ġquarre": 8699,
      "Ġprofound": 8700,
      "voc": 8701,
      "Ġparle": 8702,
      "Ġparch": 8703,
      "Ġparcel": 8704,
      "Ġparadise": 8705,
      "Ġparlous": 8706,
      "Ġparasite": 8707,
      "ĠBecome": 8708,
      "Ġspeedily": 8709,
      "Ġstrengthen": 8710,
      "cession": 8711,
      "Ġforerun": 8712,
      "Ġforefather": 8713,
      "Ġdivide": 8714,
      "Ġposts": 8715,
      "Ġposterns": 8716,
      "ĠProud": 8717,
      "ĠPrinces": 8718,
      "Ġshorten": 8719,
      "score": 8720,
      "scaped": 8721,
      "Ġvehe": 8722,
      "Ġtitles": 8723,
      "Ġwhipped": 8724,
      "Ġwondering": 8725,
      "Ġbites": 8726,
      "Ġbiting": 8727,
      "Ġseeking": 8728,
      "Ġmurdering": 8729,
      "Ġagony": 8730,
      "Ġagreement": 8731,
      "Ġwatchful": 8732,
      "Ġdistrib": 8733,
      "Ġdistinct": 8734,
      "Ġdistemper": 8735,
      "Ġchangeling": 8736,
      "Ġacting": 8737,
      "Ġwasted": 8738,
      "ĠTrans": 8739,
      "Ġstirru": 8740,
      "Ġclouded": 8741,
      "Ġentering": 8742,
      "Ġenterpr": 8743,
      "Ġsignories": 8744,
      "Ġdrinks": 8745,
      "Ġpraised": 8746,
      "Ġgarlic": 8747,
      "Ġbegging": 8748,
      "Ġbeggary": 8749,
      "Ġdeliverance": 8750,
      "Ġskin": 8751,
      "Ġsickly": 8752,
      "ĠChurch": 8753,
      "Ġordering": 8754,
      "Ġorderly": 8755,
      "Ġwishes": 8756,
      "ĠLORDS": 8757,
      "Ġregion": 8758,
      "Ġregreet": 8759,
      "Ġconsuls": 8760,
      "Ġcheerful": 8761,
      "Ġfourth": 8762,
      "Ġdug": 8763,
      "Ġducats": 8764,
      "Ġcrad": 8765,
      "Ġcrimes": 8766,
      "Ġcrutch": 8767,
      "Ġcrutches": 8768,
      "Ġliberties": 8769,
      "Ġsoften": 8770,
      "Ġsoftly": 8771,
      "ĠRevol": 8772,
      "verns": 8773,
      "Ġencomp": 8774,
      "Ġencourage": 8775,
      "Ġmoveables": 8776,
      "Ġbeginning": 8777,
      "Ġconsented": 8778,
      "Ġfrowning": 8779,
      "Ġfeasting": 8780,
      "Ġgrove": 8781,
      "Ġexpost": 8782,
      "changing": 8783,
      "Ġestab": 8784,
      "hematic": 8785,
      "Ġmalicious": 8786,
      "Ġbarb": 8787,
      "Ġbarr": 8788,
      "Ġbargain": 8789,
      "Ġdropp": 8790,
      "Ġdarkly": 8791,
      "ĠAbbot": 8792,
      "ĠAbhors": 8793,
      "Ġspeechless": 8794,
      "Ġvictorious": 8795,
      "Ġbriefly": 8796,
      "Ġpenury": 8797,
      "Ġgotten": 8798,
      "Ġintercept": 8799,
      "Ġintercession": 8800,
      "Ġevident": 8801,
      "Ġsummon": 8802,
      "Ġrespects": 8803,
      "Ġcomplices": 8804,
      "Ġvisiting": 8805,
      "soe": 8806,
      "Ġbroils": 8807,
      "Ġcapable": 8808,
      "Ġworshipful": 8809,
      "Ġfresher": 8810,
      "Ġfreshest": 8811,
      "Ġcreation": 8812,
      "Ġlimb": 8813,
      "Ġopposed": 8814,
      "Ġviolate": 8815,
      "Ġapproaches": 8816,
      "Ġleader": 8817,
      "ĠStanding": 8818,
      "Ġpatiently": 8819,
      "Ġlamentations": 8820,
      "Ġbawdy": 8821,
      "Ġcleft": 8822,
      "Ġlacks": 8823,
      "Ġlaboured": 8824,
      "ĠBlood": 8825,
      "ĠBlind": 8826,
      "ĠBlack": 8827,
      "ĠBlush": 8828,
      "ĠMercury": 8829,
      "Ġeating": 8830,
      "ĠThinking": 8831,
      "Ġunwill": 8832,
      "ĠChristendom": 8833,
      "ackey": 8834,
      "Ġsurm": 8835,
      "Ġsurly": 8836,
      "Ġsurvey": 8837,
      "ĠConst": 8838,
      "Ġbirths": 8839,
      "Ġcertainly": 8840,
      "Ġpainful": 8841,
      "ĠAdam": 8842,
      "ĠAmazon": 8843,
      "ĠBrought": 8844,
      "ĠExcept": 8845,
      "Ġfavourable": 8846,
      "Ġproceeding": 8847,
      "Ġtorches": 8848,
      "Ġtorments": 8849,
      "Ġshift": 8850,
      "Ġwildly": 8851,
      "Ġcaus": 8852,
      "Ġinjured": 8853,
      "Ġurging": 8854,
      "Ġpleasures": 8855,
      "ggard": 8856,
      "Ġapothecary": 8857,
      "Ġshock": 8858,
      "Ġmeditation": 8859,
      "Ġemulation": 8860,
      "Ġdooms": 8861,
      "Ġuncertain": 8862,
      "Ġcontinued": 8863,
      "ĠEnglishman": 8864,
      "Ġmutinies": 8865,
      "Ġlane": 8866,
      "Ġstealing": 8867,
      "Ġrefuge": 8868,
      "Ġtempor": 8869,
      "bborn": 8870,
      "Ġdrowning": 8871,
      "ĠMeaning": 8872,
      "Ġeffects": 8873,
      "Ġstole": 8874,
      "ĠEnforce": 8875,
      "ĠEnvir": 8876,
      "Ġswiftly": 8877,
      "Ġdesperately": 8878,
      "Ġpursues": 8879,
      "Ġdoublet": 8880,
      "Ġcountermand": 8881,
      "Ġcounterpo": 8882,
      "Ġauthorities": 8883,
      "Ġbastardy": 8884,
      "Ġfruits": 8885,
      "Ġcorners": 8886,
      "Ġelders": 8887,
      "Ġstudies": 8888,
      "Ġstudied": 8889,
      "Ġseverity": 8890,
      "Ġenjoys": 8891,
      "Ġwretchedness": 8892,
      "Ġbeggarly": 8893,
      "Ġgentry": 8894,
      "Ġdegenerate": 8895,
      "ĠHeavens": 8896,
      "Ġbait": 8897,
      "Ġdwelling": 8898,
      "Ġcustomary": 8899,
      "Ġbutchers": 8900,
      "Ġunfit": 8901,
      "Ġadded": 8902,
      "Ġprivately": 8903,
      "Ġverge": 8904,
      "Ġverity": 8905,
      "Ġwagon": 8906,
      "Ġrelation": 8907,
      "Ġrelieve": 8908,
      "Ġdealing": 8909,
      "Ġshores": 8910,
      "Ġarrival": 8911,
      "Ġunpre": 8912,
      "Ġsmoking": 8913,
      "ĠShowing": 8914,
      "Ġprophecies": 8915,
      "attling": 8916,
      "Ġstabbed": 8917,
      "ĠLoved": 8918,
      "Ġspeeches": 8919,
      "Ġnecessities": 8920,
      "Ġproofs": 8921,
      "Ġprevails": 8922,
      "Ġjointure": 8923,
      "Ġembracements": 8924,
      "Ġinnocents": 8925,
      "Ġesc": 8926,
      "Ġespecially": 8927,
      "Ġedict": 8928,
      "Ġdriven": 8929,
      "Ġcreeping": 8930,
      "Ġelection": 8931,
      "Ġelements": 8932,
      "Ġdecree": 8933,
      "Ġdecrees": 8934,
      "Ġsailors": 8935,
      "Ġplotted": 8936,
      "Ġprofession": 8937,
      "rehend": 8938,
      "Ġballads": 8939,
      "Ġdetested": 8940,
      "ĠRescue": 8941,
      "Ġambush": 8942,
      "Ġambassad": 8943,
      "Ġoffenders": 8944,
      "Ġheaviness": 8945,
      "Ġheavily": 8946,
      "Ġpersuaded": 8947,
      "Ġexpressly": 8948,
      "Ġbandy": 8949,
      "Ġbonds": 8950,
      "Ġbondage": 8951,
      "Ġcalf": 8952,
      "Ġcensured": 8953,
      "Ġphysicians": 8954,
      "Ġbewray": 8955,
      "Ġbewitch": 8956,
      "Ġvanqu": 8957,
      "Ġvanish": 8958,
      "Ġdeserts": 8959,
      "Ġaffected": 8960,
      "Ġleanness": 8961,
      "Ġaccusations": 8962,
      "Ġpetitions": 8963,
      "Ġpunishment": 8964,
      "Ġbasil": 8965,
      "Ġfeeble": 8966,
      "Ġfashions": 8967,
      "Ġdivers": 8968,
      "Ġpikes": 8969,
      "ĠBearing": 8970,
      "ĠCobham": 8971,
      "ĠRepair": 8972,
      "Ġseparated": 8973,
      "Ġcomplete": 8974,
      "Ġargument": 8975,
      "Ġarguments": 8976,
      "Ġrosemary": 8977,
      "Ġadvancement": 8978,
      "Ġtemperance": 8979,
      "itae": 8980,
      "Ġhostess": 8981,
      "Ġgrub": 8982,
      "ĠSetting": 8983,
      "Ġshunn": 8984,
      "Ġblocks": 8985,
      "Ġungentle": 8986,
      "Ġquality": 8987,
      "Ġqualities": 8988,
      "Ġqualify": 8989,
      "Ġalteration": 8990,
      "Ġconsidering": 8991,
      "Ġcompanions": 8992,
      "Ġmaidenhead": 8993,
      "Ġvexation": 8994,
      "Ġwaiting": 8995,
      "Ġdirectly": 8996,
      "Ġingrateful": 8997,
      "Ġmorsel": 8998,
      "Ġdigest": 8999,
      "Ġthorny": 9000,
      "Ġglove": 9001,
      "ĠBrave": 9002,
      "Ġmelted": 9003,
      "ĠSebast": 9004,
      "Ġwealthy": 9005,
      "Ġsprites": 9006,
      "Ġworthier": 9007,
      "Ġworthiest": 9008,
      "Ġjewels": 9009,
      "Ġdisperse": 9010,
      "Ġensue": 9011,
      "Ġenforcement": 9012,
      "Ġclamorous": 9013,
      "ĠPlayer": 9014,
      "Ġaffliction": 9015,
      "Ġsymp": 9016,
      "Ġsalute": 9017,
      "Ġmirror": 9018,
      "Ġfiends": 9019,
      "Ġdimm": 9020,
      "Ġdifferen": 9021,
      "Ġceremony": 9022,
      "Ġlinen": 9023,
      "Ġhorrible": 9024,
      "Ġports": 9025,
      "ĠAccursed": 9026,
      "ĠSmall": 9027,
      "Ġforsook": 9028,
      "ĠCondition": 9029,
      "Ġreceipt": 9030,
      "Ġreckless": 9031,
      "Ġvillanous": 9032,
      "Ġmanifested": 9033,
      "Ġuneven": 9034,
      "Ġunjustly": 9035,
      "Ġdispleased": 9036,
      "Ġfloods": 9037,
      "Ġbeguiled": 9038,
      "Ġresisted": 9039,
      "Ġhelmets": 9040,
      "Ġreconciled": 9041,
      "Ġcomplaints": 9042,
      "Ġcomplexions": 9043,
      "boding": 9044,
      "ratitude": 9045,
      "Ġtimorous": 9046,
      "Ġmessage": 9047,
      "Ġbonny": 9048,
      "Ġbonnet": 9049,
      "Ġbuckle": 9050,
      "Ġlineal": 9051,
      "ĠAfric": 9052,
      "ĠAwake": 9053,
      "ĠAwaked": 9054,
      "Ġstumbled": 9055,
      "Ġshameless": 9056,
      "Ġspectacle": 9057,
      "Ġspectators": 9058,
      "ĠKnows": 9059,
      "Ġfactious": 9060,
      "ĠValent": 9061,
      "ĠValeria": 9062,
      "Ġdisguise": 9063,
      "Ġengross": 9064,
      "Ġcoffin": 9065,
      "Ġcoffers": 9066,
      "Ġgratis": 9067,
      "Ġincense": 9068,
      "Ġinnocency": 9069,
      "Ġacquaintance": 9070,
      "shapen": 9071,
      "weigh": 9072,
      "Ġtoucheth": 9073,
      "Ġtrod": 9074,
      "oubted": 9075,
      "Ġmathematic": 9076,
      "Ġfretting": 9077,
      "ĠImagine": 9078,
      "Ġnettle": 9079,
      "Ġlurk": 9080,
      "Ġlurking": 9081,
      "Ġthirsty": 9082,
      "Ġhomicide": 9083,
      "Ġhighest": 9084,
      "ĠApril": 9085,
      "ĠWitness": 9086,
      "ĠWithal": 9087,
      "ĠCastle": 9088,
      "ĠGuild": 9089,
      "ĠPerchance": 9090,
      "Ġdeceased": 9091,
      "ĠDelpho": 9092,
      "Ġblasts": 9093,
      "Ġhopeless": 9094,
      "Ġflinty": 9095,
      "Ġpreparation": 9096,
      "Ġpreposterous": 9097,
      "Ġcontrol": 9098,
      "Ġsubdue": 9099,
      "Ġsubdued": 9100,
      "Ġtrenches": 9101,
      "Ġtrencher": 9102,
      "Ġbeauties": 9103,
      "Ġbeautiful": 9104,
      "Ġsacrifice": 9105,
      "Ġlengthens": 9106,
      "Ġtransport": 9107,
      "Ġsession": 9108,
      "Ġporter": 9109,
      "Ġpainting": 9110,
      "Ġgnaw": 9111,
      "Ġgamut": 9112,
      "Ġgainsay": 9113,
      "ĠSusan": 9114,
      "ĠHonest": 9115,
      "ĠFitzwater": 9116,
      "Ġspotted": 9117,
      "Ġgossips": 9118,
      "Ġunavoided": 9119,
      "Ġunaccustom": 9120,
      "Ġunrevere": 9121,
      "Ġprodigy": 9122,
      "Ġprodigal": 9123,
      "Ġdisinherit": 9124,
      "Ġdisinherited": 9125,
      "Ġabundant": 9126,
      "Ġabundance": 9127,
      "Ġrobbers": 9128,
      "ĠQuick": 9129,
      "Ġaccomplish": 9130,
      "Ġobsequies": 9131,
      "Ġbuzzard": 9132,
      "Ġattorneys": 9133,
      "Ġdrooping": 9134,
      "Ġdetestable": 9135,
      "Ġfantastic": 9136,
      "Ġfantastical": 9137,
      "ĠPersuade": 9138,
      "ĠPersuades": 9139,
      "doing": 9140,
      "tinent": 9141,
      "weary": 9142,
      "Ġmasqu": 9143,
      "Ġbulk": 9144,
      "Ġfifty": 9145,
      "Ġcropp": 9146,
      "Ġcushion": 9147,
      "Ġyesternight": 9148,
      "Ġpowder": 9149,
      "ĠAcquaint": 9150,
      "ĠWestmin": 9151,
      "Ġinvention": 9152,
      "ĠCheer": 9153,
      "Ġeffeminate": 9154,
      "Ġstinking": 9155,
      "Ġresemblance": 9156,
      "ĠPursuivant": 9157,
      "Ġdeformity": 9158,
      "Ġdoleful": 9159,
      "ĠErr": 9160,
      "Ġbutterfly": 9161,
      "ĠDestroy": 9162,
      "Ġannoy": 9163,
      "Ġancestors": 9164,
      "Ġsparkling": 9165,
      "Ġplanet": 9166,
      "Ġdissembling": 9167,
      "Ġrheum": 9168,
      "Ġrigour": 9169,
      "Ġclergy": 9170,
      "Ġeverlasting": 9171,
      "Ġrumour": 9172,
      "Ġaccompany": 9173,
      "Ġchampion": 9174,
      "Ġconfederate": 9175,
      "Ġafterwards": 9176,
      "Ġobscured": 9177,
      "ĠHappily": 9178,
      "Ġcriminal": 9179,
      "Ġsummers": 9180,
      "Ġinsinuate": 9181,
      "Ġunluckily": 9182,
      "Ġunprovided": 9183,
      "Ġmagistrate": 9184,
      "Ġlineaments": 9185,
      "Ġsurprised": 9186,
      "Ġmomentary": 9187,
      "pretation": 9188,
      "withal": 9189,
      "Ġturtle": 9190,
      "Ġtinker": 9191,
      "Ġtreaty": 9192,
[...]
